{"version":"1.0","truncation":{"max_length":512,"strategy":"LongestFirst","stride":0},"padding":null,"added_tokens":[{"id":0,"special":true,"content":"[UNK]","single_word":false,"lstrip":false,"rstrip":false,"normalized":false},{"id":1,"special":true,"content":"[CLS]","single_word":false,"lstrip":false,"rstrip":false,"normalized":false},{"id":2,"special":true,"content":"[SEP]","single_word":false,"lstrip":false,"rstrip":false,"normalized":false},{"id":3,"special":true,"content":"[PAD]","single_word":false,"lstrip":false,"rstrip":false,"normalized":false},{"id":4,"special":true,"content":"[MASK]","single_word":false,"lstrip":false,"rstrip":false,"normalized":false},{"id":5,"special":true,"content":"[INST]","single_word":false,"lstrip":false,"rstrip":false,"normalized":false}],"normalizer":null,"pre_tokenizer":{"type":"CharDelimiterSplit","delimiter":"\n"},"post_processor":{"type":"RobertaProcessing","sep":["[SEP]",2],"cls":["[CLS]",1],"trim_offsets":true,"add_prefix_space":true},"decoder":null,"model":{"type":"WordPiece","unk_token":"[UNK]","continuing_subword_prefix":"##","max_input_chars_per_word":100,"vocab":{"[UNK]":0,"[CLS]":1,"[SEP]":2,"[PAD]":3,"[MASK]":4,"[INST]":5," ":6,"\"":7,"%":8,"(":9,")":10,"*":11,",":12,"-":13,".":14,"0":15,"1":16,"2":17,"3":18,"4":19,"5":20,"6":21,"7":22,"8":23,"9":24,":":25,";":26,"<":27,"=":28,">":29,"@":30,"A":31,"B":32,"D":33,"E":34,"F":35,"G":36,"I":37,"L":38,"N":39,"O":40,"P":41,"R":42,"S":43,"T":44,"Y":45,"[":46,"\\":47,"]":48,"_":49,"a":50,"b":51,"c":52,"d":53,"e":54,"f":55,"g":56,"h":57,"i":58,"l":59,"m":60,"n":61,"o":62,"p":63,"q":64,"r":65,"s":66,"t":67,"u":68,"v":69,"w":70,"x":71,"y":72,"z":73,"{":74,"}":75,"##%":76,"##I":77,"##D":78,"##>":79,"## ":80,"##=":81,"##l":82,"##o":83,"##a":84,"##d":85,"##i":86,"##6":87,"##4":88,"##,":89,"##*":90,"##{":91,"##}":92,"##8":93,"##g":94,"##n":95,"##p":96,"##h":97,"##3":98,"##2":99,"##[":100,"##<":101,"##1":102,"##x":103,"##]":104,"##7":105,"##5":106,"##r":107,"##b":108,"##e":109,"##0":110,"##v":111,"##@":112,"##(":113,"##9":114,"##)":115,"##t":116,"##N":117,"##T":118,"##c":119,"##.":120,"##u":121,"##f":122,"##m":123,"##s":124,"##L":125,"##A":126,"##B":127,"##E":128,"##:":129,"##;":130,"##_":131,"##y":132,"##w":133,"##F":134,"##O":135,"##q":136,"##z":137,"##\"":138,"##Y":139,"##P":140,"##-":141,"##S":142,"##R":143,"##G":144,"##\\":145,"##, ":146,"##ID":147,"##ID>":148,"##, i":149,"##%ID>":150,"##32":151,"## <":152,"## i":153,"##, i32":154,"## x":155,"## <%ID>":156,"##le":157,"##ou":158,"## =":159,"##64":160,"## = ":161,"<%ID>":162,"<%ID> = ":163,"## x ":164,"##ble":165,"##dou":166,"##double":167,"##, i32, i32":168,"## i32":169,"##, i64":170,"## <%ID>, ":171,"##[5":172,"##T>":173,"##al":174,"##IN":175,"##INT>":176,"##], ":177,"## <INT>":178,"##n ":179,"##ali":180,"##gn ":181,"##align ":182,"##[5 x ":183,"##*, ":184,"## x i":185,"##[1":186,"##ds":187,"##]]":188,"##, i64 <INT>":189,"##* <%ID>, ":190,"##ad":191,"##* <%ID>, align ":192,"##lo":193,"##[5 x double":194,"##, i8":195,"##r i":196,"##te":197,"##ue":198,"##op":199,"##aq":200,"##opaq":201,"##opaque":202,"##me":203,"##nt":204,"##, i8*":205,"## double":206,"##, i32, i32, i32, i32":207,"<%ID> = lo":208,"<%ID> = load":209,"##leme":210,"##teleme":211,"##telement":212,"##pt":213,"##ge":214,"##telementpt":215,"##getelementpt":216,"##getelementptr i":217,"##nb":218,"##nds":219,"##ounds":220,"##getelementptr inb":221,"##getelementptr inbounds":222,"## }":223,"##getelementptr inbounds ":224,"##to":225,"##[10":226,"##L>":227,"##LA":228,"##BE":229,"##LABE":230,"##LABEL>":231,"## x i8":232,"<%ID> = getelementptr inbounds ":233,"##* <%ID>":234,"##3 x ":235,"##re":236,"##opaque*, ":237,"##[103 x ":238,"## <%ID>, <":239,"##@ID>":240,"##, i32* <%ID>, align ":241,"##, i32* <%ID>, align 4":242,"##, i8*, i8*":243,"##2 x i8":244,"##[51":245,"##[512 x i8":246,"##* <%ID>, i64 <INT>":247,"## i32 <%ID>":248,"##], [":249,"<%ID> = load i32":250,"## i64":251,"## <@ID>":252,"##* <%ID>, align 8":253,"##[5 x double]]":254,"## x i32":255,"## x i64":256,"##, i64 <%ID>":257,"##[512 x i8], ":258,"## to":259,"##ex":260,"##la":261,"##be":262,"##labe":263,"##label":264,"<%ID> = s":265,"##, double":266,"##*, i32":267,"<%ID> = load i32, i32* <%ID>, align 4":268,"##{ ":269,"##ext":270,"## i32 <%ID> to":271,"##ext i32 <%ID> to":272,"##ext i32 <%ID> to i64":273,"## <%ID>, <%ID>":274,"##* <@ID>":275,"##[5 x double]":276,"##[512 x i8], [512 x i8], ":277,"sto":278,"store":279,"<%ID> = sext i32 <%ID> to i64":280,"## double, double":281,"##2 x ":282,"##opaque*, opaque*, ":283,"## <LABEL>":284,"##*, i32, ":285,"<LABEL>":286,"<LABEL>:":287,"## p":288,"## ;":289,"## pre":290,"## ; pre":291,"## ; preds":292,"<LABEL>: ; preds":293,"##label <%ID>":294,"## = <LABEL>":295,"<LABEL>: ; preds = <LABEL>":296,"##] }":297,"##, align ":298,"<%ID> = f":299,"<%ID> = load double, double":300,"##{ i32":301,"##* <%ID>, i64 <INT>, i64 <INT>":302,"##[1 x i64":303,"##*, i32, [1 x i64":304,"##*, i32, [1 x i64] }":305,"##opaque*, opaque":306,"##{ opaque*, opaque":307,"##[103 x [5 x double]]":308,"##r ":309,"##, i32, i32, i64":310,"## double <%ID>, <%ID>":311,"##* <@ID>, i64 <INT>":312,"##, i8*, i8*, i8*, i8*":313,"##{ opaque*, opaque*, i32, [1 x i64] }":314,"<%ID> = load double, double* <%ID>, align 8":315,"##, i32 <INT>":316,"##, i32, i32, i32, i32, i32, i32, i32, i32":317,"##[5 x double], ":318,"##[5 x double], [5 x double]":319,"br ":320,"##ul":321,"<%ID> = getelementptr inbounds [5 x double], [5 x double]":322,"##[103 x [103 x [5 x double]]":323,"br label <%ID>":324,"##* <%ID>, i64 <INT>, i64 <%ID>":325,"## }*, ":326,"## x [":327,"##4 x i64":328,"## <%ID>, <INT>":329,"##mul":330,"##[5 x [5 x double]]":331,"##add":332,"##, <":333,"## i32 <%ID>, <INT>":334,"##ns":335,"##* <@ID>, i64 <INT>, i64 <%ID>":336,"<%ID> = getelementptr inbounds [":337,"<%ID> = fmul":338,"## x i32]]":339,"##[102 x ":340,"## x i32]":341,"##{ opaque*, opaque*, i32, [1 x i64] }*":342,"##, align 8":343,"##, i32*, ":344,"store double":345,"##ca":346,"## ns":347,"## nsw":348,"##, i64, i32, i32":349,"## x i8]":350,"##00":351,"<%ID> = getelementptr inbounds [5 x double], [5 x double]* <%ID>, i64 <INT>, i64 <INT>":352,"## x i32], [":353,"##[2":354,"<%ID> = fmul double <%ID>, <%ID>":355,"##4 x i64], [":356,"##, i32, i32, i32, i32, i32, i32, i64":357,"##[512 x i8], [512 x i8], [512 x i8], [512 x i8], ":358,"##*, <":359,"##[5 x double]], ":360,"##* ":361,"##r i1":362,"br i1":363,"##opaque*, opaque*, opaque*, opaque*, ":364,"##16":365,"## <%ID>, double":366,"##88":367,"##8800":368,"##, <LABEL>":369,"##ub":370,"## = i":371,"##label <%ID>, ":372,"##label <%ID>, label <%ID>":373,"##cm":374,"##cmp":375,"##cmp ":376,"br i1 <%ID>, ":377,"br i1 <%ID>, label <%ID>, label <%ID>":378,"##LO":379,"##AT>":380,"##FLO":381,"##FLOAT>":382,"<%ID> = i":383,"## nsw i32 <%ID>, <INT>":384,"##, i32 <INT>, i32 <INT>":385,"<%ID> = icmp ":386,"<@ID>":387,"##allo":388,"##alloca":389,"##, align 4":390,"<%ID> = alloca":391,"## i32 <INT>":392,"##*, <%ID>":393,"<@ID> = ":394,"##[103 x [103 x [5 x double]]]":395,"store double <%ID>, double":396,"<LABEL>: ; preds = <LABEL>, <LABEL>":397,"store i32 <%ID>":398,"## [":399,"## <@ID>(":400,"##6 x [":401,"##getelementptr inbounds (":402,"<%ID> = getelementptr inbounds [103 x ":403,"##*, i8*":404,"## }*":405,"## <FLOAT>":406,"store i32 <INT>":407,"store double <%ID>, double* <%ID>, align 8":408,"##all":409,"<%ID> = add":410,"## <%ID>, <%ID> ":411,"store i32 <%ID>, i32* <%ID>, align 4":412,"## i8":413,"##, i32, i32, i32*, ":414,"##, i32, i32, i32, i32, i32, i32, i32, i32, i32, i32, i32*, ":415,"##{ i32, i32, i32, i64":416,"##]]* <@ID>, i64 <INT>, i64 <%ID>":417,"##*, i8* }":418,"##* <@ID>, align 8":419,"##8800 x [":420,"##* getelementptr inbounds (":421,"##, i32, i8*":422,"##{ i32, i64, i32, i32":423,"##{ opaque*, opaque*, i32, [1 x i64] }, ":424,"##sub":425,"<%ID> = fsub":426,"<%ID> = add nsw i32 <%ID>, <INT>":427,"##{ { opaque*, opaque*, i32, [1 x i64] }, ":428,"##{ opaque*, opaque*, i32, [1 x i64] }*, i32, i32, i32, i32, i32, i32, i32, i32, i32, i32, i32*, ":429,"##{ { opaque*, opaque*, i32, [1 x i64] }, { opaque*, opaque*, i32, [1 x i64] }*, i32, i32, i32, i32, i32, i32, i32, i32, i32, i32, i32*, ":430,"##{ { opaque*, opaque*, i32, [1 x i64] }, { opaque*, opaque*, i32, [1 x i64] }*, i32, i32, i32, i32, i32, i32, i32, i32, i32, i32, i32*, { opaque*, opaque*, i32, [1 x i64] }*":431,"##[512 x i8]":432,"##, <%ID>":433,"##{ i32, i32, i32":434,"##..":435,"<%ID> = getelementptr inbounds [102 x ":436,"##20":437,"##{ <%ID>":438,"##{ <%ID>*, <%ID>":439,"<%ID> = getelementptr inbounds [5 x ":440,"## <@ID>(i":441,"##oi":442,"##{ i32, i32, i32, i64 }*, ":443,"##{ i32, i64, i32, i32 }*, ":444,"<%ID> = fsub double <%ID>, <%ID>":445,"##4 x i64], [4 x i64":446,"##{ i32, i32, i32 }*":447,"##{ { opaque*, opaque*, i32, [1 x i64] }, { opaque*, opaque*, i32, [1 x i64] }*, i32, i32, i32, i32, i32, i32, i32, i32, i32, i32, i32*, { opaque*, opaque*, i32, [1 x i64] }**, i8* }":448,"##20 x i32], [":449,"##[4 x i64], [":450,"##], { i32, i32, i32, i64 }*, ":451,"##{ [512 x i8]":452,"##[512 x i8], [512 x i8], [512 x i8], ":453,"##*, i32, { i32, i64, i32, i32 }*, ":454,"##, i32, i32, i32, i32, i32, i32, i32, i32, i32, i32, i32, i32, i32, i32, i64":455,"##, i64, i32, i32, i32, i8*":456,"##, i32, i32, i32, i32, i32, i32, i64, i32, i32, i32, i32":457,"##[512 x i8], [512 x i8], [512 x i8], [512 x i8], [512 x i8], [512 x i8], [512 x i8], ":458,"##4 x i64], [4 x i64], { i32, i32, i32, i64 }*, ":459,"##{ i32, i32, i32 }*, i32, i32, i32, i32, i32, i32, i64, i32, i32, i32, i32":460,"##20 x i32], [4 x i64], [4 x i64], { i32, i32, i32, i64 }*, ":461,"##[4 x i64], [20 x i32], [4 x i64], [4 x i64], { i32, i32, i32, i64 }*, ":462,"##{ [512 x i8], i32, i32, i32, i32, i32, i32, i32, i32, i32, i32, i32, i32, i32, i32, i64":463,"##*, i32, { i32, i64, i32, i32 }*, [512 x i8], [512 x i8], [512 x i8], [512 x i8], [512 x i8], [512 x i8], [512 x i8], ":464,"##, i64, i32, i32, i32, i8*, i32*, ":465,"##[4 x i64], [20 x i32], [4 x i64], [4 x i64], { i32, i32, i32, i64 }*, { i32, i32, i32 }*, i32, i32, i32, i32, i32, i32, i64, i32, i32, i32, i32":466,"##{ [512 x i8], i32, i32, i32, i32, i32, i32, i32, i32, i32, i32, i32, i32, i32, i32, i64, i64, i32, i32, i32, i8*, i32*, ":467,"##** <%ID>, align 8":468,"<%ID> = load ":469,"<%ID> = load double, double* <@ID>, align 8":470,"##nn":471,"##ph":472,"<%ID> = ph":473,"<%ID> = phi":474,"##glo":475,"##bal":476,"##global":477,"##[5 x [5 x double]]]":478,"##], [102 x ":479,"store i32 <INT>, i32* <%ID>, align 4":480,"##co":481,"##[5 x i32]]":482,"##[5 x [5 x i32]]":483,"##[5 x double]], [103 x [5 x double]]":484,"##double]":485,"<%ID> = getelementptr inbounds [103 x [5 x double]], [103 x [5 x double]]":486,"##2 x [2":487,"##opaque*, [4 x i64], [20 x i32], [4 x i64], [4 x i64], { i32, i32, i32, i64 }*, { i32, i32, i32 }*, i32, i32, i32, i32, i32, i32, i64, i32, i32, i32, i32":488,"##opaque*, opaque*, opaque*, [4 x i64], [20 x i32], [4 x i64], [4 x i64], { i32, i32, i32, i64 }*, { i32, i32, i32 }*, i32, i32, i32, i32, i32, i32, i64, i32, i32, i32, i32":489,"##opaque*, opaque*, opaque*, opaque*, opaque*, opaque*, opaque*, [4 x i64], [20 x i32], [4 x i64], [4 x i64], { i32, i32, i32, i64 }*, { i32, i32, i32 }*, i32, i32, i32, i32, i32, i32, i64, i32, i32, i32, i32":490,"##{ { opaque*, opaque*, i32, [1 x i64] }, { opaque*, opaque*, i32, [1 x i64] }*, i32, i32, i32, i32, i32, i32, i32, i32, i32, i32, i32*, { opaque*, opaque*, i32, [1 x i64] }**, i8* }*, i32, { i32, i64, i32, i32 }*, [512 x i8], [512 x i8], [512 x i8], [512 x i8], [512 x i8], [512 x i8], [512 x i8], ":491,"##{ [512 x i8], i32, i32, i32, i32, i32, i32, i32, i32, i32, i32, i32, i32, i32, i32, i64, i64, i32, i32, i32, i8*, i32*, { { opaque*, opaque*, i32, [1 x i64] }, { opaque*, opaque*, i32, [1 x i64] }*, i32, i32, i32, i32, i32, i32, i32, i32, i32, i32, i32*, { opaque*, opaque*, i32, [1 x i64] }**, i8* }*, i32, { i32, i64, i32, i32 }*, [512 x i8], [512 x i8], [512 x i8], [512 x i8], [512 x i8], [512 x i8], [512 x i8], ":492,"##{ [512 x i8], i32, i32, i32, i32, i32, i32, i32, i32, i32, i32, i32, i32, i32, i32, i64, i64, i32, i32, i32, i8*, i32*, { { opaque*, opaque*, i32, [1 x i64] }, { opaque*, opaque*, i32, [1 x i64] }*, i32, i32, i32, i32, i32, i32, i32, i32, i32, i32, i32*, { opaque*, opaque*, i32, [1 x i64] }**, i8* }*, i32, { i32, i64, i32, i32 }*, [512 x i8], [512 x i8], [512 x i8], [512 x i8], [512 x i8], [512 x i8], [512 x i8], opaque*, opaque*, opaque*, opaque*, opaque*, opaque*, opaque*, [4 x i64], [20 x i32], [4 x i64], [4 x i64], { i32, i32, i32, i64 }*, { i32, i32, i32 }*, i32, i32, i32, i32, i32, i32, i64, i32, i32, i32, i32":493,"## v":494,"##oid":495,"## void":496,"##{ double, double":497,"<%ID> = load i32, i32":498,"##2 x [":499,"<%ID> = icmp s":500,"##[103 x [103 x [5 x double]]], ":501,"##[103 x [103 x [5 x double]]], [103 x [103 x [5 x double]]]":502,"##{ double, double }":503,"##, i8*, ":504,"##iv":505,"<%ID> = getelementptr inbounds [103 x [103 x [5 x double]]], [103 x [103 x [5 x double]]]":506,"##ame":507,"##d_":508,"##unn":509,"##amed_":510,"##unnamed_":511,"##unnamed_add":512,"##call":513,"##[5 x double]], [5 x [5 x double]]":514,"##, i8, ":515,"##unnamed_addr ":516,"<%ID> = getelementptr inbounds [103 x [5 x double]], [103 x [5 x double]]* <%ID>, i64 <INT>, i64 <%ID>":517,"## <%ID>, <%ID> ]":518,"##* <%ID>, i32 <INT>, i32 <INT>":519,"<%ID> = getelementptr inbounds [5 x [5 x double]], [5 x [5 x double]]":520,"##0 x i8":521,"<%ID> = alloca i32":522,"##* <@ID>, i64 <INT>, i64 <INT>":523,"##, i64, i32":524,"##* <@ID>, i32 <INT>, i32 <INT>":525,"<%ID> = fadd":526,"##2 x [2 x i32]]":527,"##it":528,"##ta":529,"##[20 x i8":530,"##, i16":531,"<%ID> = call":532,"##nal":533,"##rnal":534,"##ternal":535,"##* getelementptr inbounds ([":536,"##*, i32, i32, i64":537,"##, [20 x i8":538,"##, i64, i8*, i8*, i8*, i8*":539,"##[1 x i8]":540,"##, i8*, i64, i8*, i8*, i8*, i8*":541,"##, i8*, i8*, i8*, ":542,"##*, i32 }*, ":543,"##{ i32, i8*, i8*, i8*, i8*":544,"##, i8*, i8*, i8*, i8*, i8*, i8*, i8*, ":545,"##, i8, [1 x i8]":546,"##, i64, i32, [20 x i8":547,"##, i16, i8, [1 x i8]":548,"##*, i32, i32, i64, i16, i8, [1 x i8]":549,"##, i8*, i64, i8*, i8*, i8*, i8*, i64, i32, [20 x i8":550,"##{ i32, i8*, i8*, i8*, i8*, i8*, i8*, i8*, i8*, i8*, i8*, i8*, ":551,"##*, i32, i32, i64, i16, i8, [1 x i8], i8*, i64, i8*, i8*, i8*, i8*, i64, i32, [20 x i8":552,"##*, i32, i32, i64, i16, i8, [1 x i8], i8*, i64, i8*, i8*, i8*, i8*, i64, i32, [20 x i8] }":553,"<%ID> = fadd double <%ID>, <%ID>":554,"##2 x [2 x ":555,"##* <@ID>, i32 <INT>, i32 <INT>)":556,"##* <%ID>, i64 <%ID>":557,"## <%ID>)":558,"##ternal ":559,"##[103 x [103 x [5 x double]]]], [102 x ":560,"##[103 x [103 x [5 x double]]]], [102 x [103 x [103 x [5 x double]]":561,"##, align 1":562,"## <FLOAT>, double":563,"##nsta":564,"##consta":565,"##constant":566,"## x i32]], [":567,"##unnamed_addr constant":568,"## unnamed_addr constant":569,"##ate":570,"##pr":571,"<@ID> = pr":572,"##ivate":573,"<@ID> = private":574,"<@ID> = private unnamed_addr constant":575,"<%ID> = phi i32":576,"<%ID> = phi i32 [":577,"## double <FLOAT>":578,"<%ID> = getelementptr inbounds [102 x [103 x [103 x [5 x double]]]], [102 x [103 x [103 x [5 x double]]":579,"<%ID> = getelementptr inbounds [102 x [103 x [103 x [5 x double]]]], [102 x [103 x [103 x [5 x double]]]]* <@ID>, i64 <INT>, i64 <%ID>":580,"##  <":581,"##TR":582,"##STR":583,"##G>":584,"##ING>":585,"##  <STR":586,"##  <STRING>":587,"##  <STRING>, align 1":588,"store double <FLOAT>, double":589,"##external ":590,"<@ID> = external ":591,"<%ID> = sub":592,"## i32 <%ID>, <%ID>":593,"##st":594,"<%ID> = getelementptr inbounds [5 x double], [5 x double]* <%ID>, i64 <INT>, i64 <%ID>":595,"## <@ID>(i8":596,"##opaque*, i32, i32, i64, i16, i8, [1 x i8], i8*, i64, i8*, i8*, i8*, i8*, i64, i32, [20 x i8] }":597,"##{ opaque*, opaque*, i32 }*, ":598,"##{ i32, i8*, i8*, i8*, i8*, i8*, i8*, i8*, i8*, i8*, i8*, i8*, { opaque*, opaque*, i32 }*, ":599,"##{ i32, i8*, i8*, i8*, i8*, i8*, i8*, i8*, i8*, i8*, i8*, i8*, { opaque*, opaque*, i32 }*, opaque*, i32, i32, i64, i16, i8, [1 x i8], i8*, i64, i8*, i8*, i8*, i8*, i64, i32, [20 x i8] }":600,"## double, align 8":601,"## x i8]* <@ID>, i32 <INT>, i32 <INT>)":602,"<%ID> = alloca i32, align 4":603,"##double]]":604,"##bit":605,"##cast":606,"##bitcast":607,"## x i8]  <STRING>, align 1":608,"## (":609,"##lt":610,"## x i32]* <%ID>, i64 <INT>, i64 <INT>":611,"##], [ <%ID>, <%ID> ]":612,"##], [103 x ":613,"<%ID> = icmp slt":614,"##*, i32 }":615,"##8800 x [6 x [":616,"<%ID> = call i32":617,"call":618,"<%ID> = getelementptr inbounds [103 x [103 x [5 x double]]], [103 x [103 x [5 x double]]]* <%ID>, i64 <INT>, i64 <%ID>":619,"<@ID> = external global":620,"## x i8], [":621,"call void":622,"<%ID> = getelementptr inbounds":623,"##{ [512 x i8], i32, i32, i32, i32, i32, i32, i32, i32, i32, i32, i32, i32, i32, i32, i64, i64, i32, i32, i32, i8*, i32*, { { opaque*, opaque*, i32, [1 x i64] }, { opaque*, opaque*, i32, [1 x i64] }*, i32, i32, i32, i32, i32, i32, i32, i32, i32, i32, i32*, { opaque*, opaque*, i32, [1 x i64] }**, i8* }*, i32, { i32, i64, i32, i32 }*, [512 x i8], [512 x i8], [512 x i8], [512 x i8], [512 x i8], [512 x i8], [512 x i8], opaque*, opaque*, opaque*, opaque*, opaque*, opaque*, opaque*, [4 x i64], [20 x i32], [4 x i64], [4 x i64], { i32, i32, i32, i64 }*, { i32, i32, i32 }*, i32, i32, i32, i32, i32, i32, i64, i32, i32, i32, i32 }":624,"##.)":625,"##...)":626,"<%ID> = bitcast":627,"##2 x [2 x [5 x [5 x i32]]":628,"##* <%ID> to":629,"## double <FLOAT>, <%ID>":630,"<%ID> = sub nsw i32 <%ID>, <INT>":631,"<%ID> = getelementptr inbounds [5 x [5 x double]], [5 x [5 x double]]* <%ID>, i64 <INT>, i64 <INT>":632,"##ne":633,"##{ <%ID>*, <%ID>*, i32, [1 x i64] }":634,"##* <@ID>, align 4":635,"##eq":636,"<%ID> = icmp eq":637,"<%ID> = call i32 (":638,"##*, <%ID>*, <%ID>":639,"##{ <%ID>*, <%ID>*, i32 }":640,"##2 x [2 x [5 x [5 x i32]]]]":641,"<%ID> = load i32, i32* <@ID>, align 4":642,"##, <%ID> ":643,"##i8":644,"<%ID> = mul":645,"##, i64 <INT>)":646,"<%ID> = icmp eq i32 <%ID>, <INT>":647,"## x double]":648,"##align 8":649,"##[5 x double]*, ":650,"## i64, i64":651,"##[5 x double]** <%ID>, align 8":652,"##...) <@ID>(i8":653,"store double <FLOAT>, double* <%ID>, align 8":654,"<%ID> = load [5 x double]*, ":655,"##*, <LABEL>":656,"## <%ID>, i32":657,"<%ID> = load [5 x double]*, [5 x double]** <%ID>, align 8":658,"##], [1":659,"##, i8* ":660,"<%ID> = getelementptr inbounds double, double":661,"##*, ...) <@ID>(i8":662,"##i8*, ...) <@ID>(i8":663,"##* <@ID>, i64 <INT>, i64 <INT>, i64 <INT>)":664,"<%ID> = getelementptr inbounds [5 x double], [5 x double]* <%ID>, i64 <INT>":665,"<@ID> = private unnamed_addr constant [":666,"## <%ID>, <%ID> ], [ <%ID>, <%ID> ]":667,"<%ID> = icmp slt i32 <%ID>, <INT>":668,"##*, i64":669,"<%ID> = call i32 (i8*, ...) <@ID>(i8":670,"<%ID> = getelementptr inbounds [2":671,"##8800 x [8":672,"## }** <%ID>, align 8":673,"##[103 x double]]":674,"store i32 <INT>, i32":675,"## i64 <%ID>, <%ID>":676,"##]], [":677,"##6 x ":678,"## <@ID>(i32":679,"##[3 x ":680,"##align 16":681,"<%ID> = fmul double <FLOAT>, <%ID>":682,"##* <@ID>, i64 <INT>, i64 <INT>)":683,"## i8*":684,"<@ID> = private unnamed_addr constant ":685,"##]* <%ID>, i64 <INT>, i64 <INT>":686,"##* getelementptr inbounds ([3":687,"<%ID> = getelementptr inbounds double, double* <%ID>, i64 <%ID>":688,"##{ <%ID>*, <%ID>*, i32, [1 x i64] }*":689,"##2 x double":690,"<%ID> = load i32, i32* <%ID>, align ":691,"<@ID> = external global double, align 8":692,"<%ID> = icmp ne":693,"##er":694,"## x double":695,"##, i64 <INT>, i64 <INT>":696,"## x i32], [2":697,"<%ID> = load i8":698,"<%ID> = getelementptr inbounds [6 x [":699,"## x i32]]* <@ID>, i64 <INT>, i64 <%ID>":700,"##[5 x [5 x double]]], [103 x ":701,"##[5 x [5 x double]]], [103 x [5 x [5 x double]]]":702,"<%ID> = alloca double, align 8":703,"<%ID> = getelementptr inbounds [103 x [5 x [5 x double]]], [103 x [5 x [5 x double]]]":704,"##8800 x [6 x [2 x [2 x i32]]":705,"<%ID> = mul nsw":706,"##[13 x ":707,"##* <%ID> to i8*":708,"store i8":709,"##, i8* getelementptr inbounds (":710,"<%ID> = getelementptr inbounds [2 x i32], [2":711,"##], [5 x ":712,"##8800 x ":713,"## double <%ID>, <":714,"## double <%ID>, <FLOAT>":715,"##], align 16":716,"## { <%ID>*, <%ID>*, i32 }":717,"##zer":718,"<%ID> = getelementptr inbounds [8":719,"##{ <LABEL>":720,"##{ <LABEL>*, <LABEL>":721,"## x i32]* <@ID>, i64 <INT>, i64 <%ID>":722,"## 0":723,"## double*, ":724,"##[103 x [103 x double]]":725,"<%ID> = alloca ":726,"##2 x double>":727,"##]* <@ID>, i64 <INT>, i64 <%ID>":728,"<%ID> = load i32, i32* <%ID>":729,"##on ":730,"##mm":731,"<@ID> = co":732,"##mmon ":733,"<@ID> = common ":734,"##, { [512 x i8], i32, i32, i32, i32, i32, i32, i32, i32, i32, i32, i32, i32, i32, i32, i64, i64, i32, i32, i32, i8*, i32*, { { opaque*, opaque*, i32, [1 x i64] }, { opaque*, opaque*, i32, [1 x i64] }*, i32, i32, i32, i32, i32, i32, i32, i32, i32, i32, i32*, { opaque*, opaque*, i32, [1 x i64] }**, i8* }*, i32, { i32, i64, i32, i32 }*, [512 x i8], [512 x i8], [512 x i8], [512 x i8], [512 x i8], [512 x i8], [512 x i8], opaque*, opaque*, opaque*, opaque*, opaque*, opaque*, opaque*, [4 x i64], [20 x i32], [4 x i64], [4 x i64], { i32, i32, i32, i64 }*, { i32, i32, i32 }*, i32, i32, i32, i32, i32, i32, i64, i32, i32, i32, i32 }":735,"##{ [512 x i8], i32, i32, i32, i32, i32, i32, i32, i32, i32, i32, i32, i32, i32, i32, i64, i64, i32, i32, i32, i8*, i32*, { { opaque*, opaque*, i32, [1 x i64] }, { opaque*, opaque*, i32, [1 x i64] }*, i32, i32, i32, i32, i32, i32, i32, i32, i32, i32, i32*, { opaque*, opaque*, i32, [1 x i64] }**, i8* }*, i32, { i32, i64, i32, i32 }*, [512 x i8], [512 x i8], [512 x i8], [512 x i8], [512 x i8], [512 x i8], [512 x i8], opaque*, opaque*, opaque*, opaque*, opaque*, opaque*, opaque*, [4 x i64], [20 x i32], [4 x i64], [4 x i64], { i32, i32, i32, i64 }*, { i32, i32, i32 }*, i32, i32, i32, i32, i32, i32, i64, i32, i32, i32, i32 }, { [512 x i8], i32, i32, i32, i32, i32, i32, i32, i32, i32, i32, i32, i32, i32, i32, i64, i64, i32, i32, i32, i8*, i32*, { { opaque*, opaque*, i32, [1 x i64] }, { opaque*, opaque*, i32, [1 x i64] }*, i32, i32, i32, i32, i32, i32, i32, i32, i32, i32, i32*, { opaque*, opaque*, i32, [1 x i64] }**, i8* }*, i32, { i32, i64, i32, i32 }*, [512 x i8], [512 x i8], [512 x i8], [512 x i8], [512 x i8], [512 x i8], [512 x i8], opaque*, opaque*, opaque*, opaque*, opaque*, opaque*, opaque*, [4 x i64], [20 x i32], [4 x i64], [4 x i64], { i32, i32, i32, i64 }*, { i32, i32, i32 }*, i32, i32, i32, i32, i32, i32, i64, i32, i32, i32, i32 }":736,"<%ID> = getelementptr inbounds { [512 x i8], i32, i32, i32, i32, i32, i32, i32, i32, i32, i32, i32, i32, i32, i32, i64, i64, i32, i32, i32, i8*, i32*, { { opaque*, opaque*, i32, [1 x i64] }, { opaque*, opaque*, i32, [1 x i64] }*, i32, i32, i32, i32, i32, i32, i32, i32, i32, i32, i32*, { opaque*, opaque*, i32, [1 x i64] }**, i8* }*, i32, { i32, i64, i32, i32 }*, [512 x i8], [512 x i8], [512 x i8], [512 x i8], [512 x i8], [512 x i8], [512 x i8], opaque*, opaque*, opaque*, opaque*, opaque*, opaque*, opaque*, [4 x i64], [20 x i32], [4 x i64], [4 x i64], { i32, i32, i32, i64 }*, { i32, i32, i32 }*, i32, i32, i32, i32, i32, i32, i64, i32, i32, i32, i32 }, { [512 x i8], i32, i32, i32, i32, i32, i32, i32, i32, i32, i32, i32, i32, i32, i32, i64, i64, i32, i32, i32, i8*, i32*, { { opaque*, opaque*, i32, [1 x i64] }, { opaque*, opaque*, i32, [1 x i64] }*, i32, i32, i32, i32, i32, i32, i32, i32, i32, i32, i32*, { opaque*, opaque*, i32, [1 x i64] }**, i8* }*, i32, { i32, i64, i32, i32 }*, [512 x i8], [512 x i8], [512 x i8], [512 x i8], [512 x i8], [512 x i8], [512 x i8], opaque*, opaque*, opaque*, opaque*, opaque*, opaque*, opaque*, [4 x i64], [20 x i32], [4 x i64], [4 x i64], { i32, i32, i32, i64 }*, { i32, i32, i32 }*, i32, i32, i32, i32, i32, i32, i64, i32, i32, i32, i32 }":737,"##, i8* <%ID>)":738,"##, align 16":739,"## x i32]]* <@ID>, i64 <INT>, i64 <INT>, i64 <INT>)":740,"<%ID> = icmp ne i32 <%ID>, <INT>":741,"## x i32]], [6 x [":742,"##double** <%ID>, align 8":743,"##[5 x [5 x double]]]]* <@ID>, i64 <INT>, i64 <%ID>":744,"<%ID> = getelementptr inbounds [103 x [103 x [5 x double]]], [103 x [103 x [5 x double]]]* <@ID>, i64 <INT>, i64 <%ID>":745,"## x i32], [3":746,"<%ID> = fmul double <%ID>, <FLOAT>":747,"##ull":748,"<%ID> = getelementptr inbounds [2 x i32], [2 x i32]* <%ID>, i64 <INT>, i64 <INT>":749,"##ef":750,"##[5 x [5 x double]]]]":751,"<%ID> = getelementptr inbounds { [512 x i8], i32, i32, i32, i32, i32, i32, i32, i32, i32, i32, i32, i32, i32, i32, i64, i64, i32, i32, i32, i8*, i32*, { { opaque*, opaque*, i32, [1 x i64] }, { opaque*, opaque*, i32, [1 x i64] }*, i32, i32, i32, i32, i32, i32, i32, i32, i32, i32, i32*, { opaque*, opaque*, i32, [1 x i64] }**, i8* }*, i32, { i32, i64, i32, i32 }*, [512 x i8], [512 x i8], [512 x i8], [512 x i8], [512 x i8], [512 x i8], [512 x i8], opaque*, opaque*, opaque*, opaque*, opaque*, opaque*, opaque*, [4 x i64], [20 x i32], [4 x i64], [4 x i64], { i32, i32, i32, i64 }*, { i32, i32, i32 }*, i32, i32, i32, i32, i32, i32, i64, i32, i32, i32, i32 }, { [512 x i8], i32, i32, i32, i32, i32, i32, i32, i32, i32, i32, i32, i32, i32, i32, i64, i64, i32, i32, i32, i8*, i32*, { { opaque*, opaque*, i32, [1 x i64] }, { opaque*, opaque*, i32, [1 x i64] }*, i32, i32, i32, i32, i32, i32, i32, i32, i32, i32, i32*, { opaque*, opaque*, i32, [1 x i64] }**, i8* }*, i32, { i32, i64, i32, i32 }*, [512 x i8], [512 x i8], [512 x i8], [512 x i8], [512 x i8], [512 x i8], [512 x i8], opaque*, opaque*, opaque*, opaque*, opaque*, opaque*, opaque*, [4 x i64], [20 x i32], [4 x i64], [4 x i64], { i32, i32, i32, i64 }*, { i32, i32, i32 }*, i32, i32, i32, i32, i32, i32, i64, i32, i32, i32, i32 }* <%ID>, i32 <INT>, i32 <INT>":752,"<%ID> = getelementptr inbounds [1":753,"<@ID> = common global":754,"<%ID> = load i64, i64":755,"store i32 <INT>, i32* getelementptr inbounds ([":756,"##, <%ID> ], [ <%ID>, <%ID> ]":757,"## x i32]* <%ID>, i64 <INT>, i64 <%ID>":758,"##<%ID>":759,"## }, ":760,"<%ID> = z":761,"## <%ID>, i32 <%ID>, i32":762,"<%ID> = load double*, ":763,"##, { double, double }":764,"##2 x i32]]":765,"##*, align 8":766,"##], [6 x [":767,"##* <%ID>)":768,"<%ID> = zext i32 <%ID> to i64":769,"<%ID> = phi i32 [ <%ID>, <%ID> ], [ <%ID>, <%ID> ]":770,"##* <%ID>, align 16":771,"<%ID> = getelementptr inbounds [103 x [5 x [5 x double]]], [103 x [5 x [5 x double]]]* <@ID>, i64 <INT>, i64 <%ID>":772,"## i64*, i64":773,"<%ID> = mul nsw i64 <%ID>, <%ID>":774,"call void <@ID>(i32":775,"##{ double, double }, { double, double }":776,"<%ID> = load double*, double** <%ID>, align 8":777,"<%ID> = getelementptr inbounds { double, double }, { double, double }":778,"<%ID> = bitcast ":779,"def":780,"##ine":781,"define":782,"re":783,"ret":784,"##34":785,"<@ID> = private unnamed_addr constant [2":786,"##8800 x [6 x [2 x [2 x [5 x [5 x i32]]]]":787,"## x i32], [8":788,"<%ID> = icmp slt i32 <%ID>, <%ID>":789,"##], [2 x ":790,"## <2 x double>":791,"store i64":792,"<%ID> = getelementptr inbounds [8 x i32], [8":793,"##no":794,"##*, <%ID>*, <%ID>*, <%ID>*, <%ID>":795,"## x i32]* <@ID>, i64 <INT>, i64 <INT>)":796,"<%ID> = icmp sle":797,"## <%ID>, <%ID> ], [":798,"<LABEL>: ; preds = ":799,"##8800 x [6":800,"##, <%ID> ]":801,"<%ID> = load i8*, i8*":802,"##[102 x [5 x double]]":803,"## <%ID> to":804,"##{ [512 x i8], i32, i32, i32, i32, i32, i32, i32, i32, i32, i32, i32, i32, i32, i32, i64, i64, i32, i32, i32, i8*, i32*, { { opaque*, opaque*, i32, [1 x i64] }, { opaque*, opaque*, i32, [1 x i64] }*, i32, i32, i32, i32, i32, i32, i32, i32, i32, i32, i32*, { opaque*, opaque*, i32, [1 x i64] }**, i8* }*, i32, { i32, i64, i32, i32 }*, [512 x i8], [512 x i8], [512 x i8], [512 x i8], [512 x i8], [512 x i8], [512 x i8], opaque*, opaque*, opaque*, opaque*, opaque*, opaque*, opaque*, [4 x i64], [20 x i32], [4 x i64], [4 x i64], { i32, i32, i32, i64 }*, { i32, i32, i32 }*, i32, i32, i32, i32, i32, i32, i64, i32, i32, i32, i32 }*, ":805,"##* <%ID>, align 1":806,"## x i8], [2":807,"store i32 <%ID>, i32":808,"##{ [512 x i8], i32, i32, i32, i32, i32, i32, i32, i32, i32, i32, i32, i32, i32, i32, i64, i64, i32, i32, i32, i8*, i32*, { { opaque*, opaque*, i32, [1 x i64] }, { opaque*, opaque*, i32, [1 x i64] }*, i32, i32, i32, i32, i32, i32, i32, i32, i32, i32, i32*, { opaque*, opaque*, i32, [1 x i64] }**, i8* }*, i32, { i32, i64, i32, i32 }*, [512 x i8], [512 x i8], [512 x i8], [512 x i8], [512 x i8], [512 x i8], [512 x i8], opaque*, opaque*, opaque*, opaque*, opaque*, opaque*, opaque*, [4 x i64], [20 x i32], [4 x i64], [4 x i64], { i32, i32, i32, i64 }*, { i32, i32, i32 }*, i32, i32, i32, i32, i32, i32, i64, i32, i32, i32, i32 }** <%ID>, align 8":809,"## x i32]* <@ID>, i64 <INT>, i64 <INT>), align 4":810,"##], [5":811,"##[5 x double]], [102 x [5 x double]]":812,"##, i64 <%ID>, i64 <%ID>":813,"<%ID> = load { [512 x i8], i32, i32, i32, i32, i32, i32, i32, i32, i32, i32, i32, i32, i32, i32, i64, i64, i32, i32, i32, i8*, i32*, { { opaque*, opaque*, i32, [1 x i64] }, { opaque*, opaque*, i32, [1 x i64] }*, i32, i32, i32, i32, i32, i32, i32, i32, i32, i32, i32*, { opaque*, opaque*, i32, [1 x i64] }**, i8* }*, i32, { i32, i64, i32, i32 }*, [512 x i8], [512 x i8], [512 x i8], [512 x i8], [512 x i8], [512 x i8], [512 x i8], opaque*, opaque*, opaque*, opaque*, opaque*, opaque*, opaque*, [4 x i64], [20 x i32], [4 x i64], [4 x i64], { i32, i32, i32, i64 }*, { i32, i32, i32 }*, i32, i32, i32, i32, i32, i32, i64, i32, i32, i32, i32 }*, ":814,"<%ID> = load i8*, i8** <%ID>, align 8":815,"##* getelementptr inbounds ([3 x i32], [3":816,"##{ i64*, i64":817,"##{ i64*, i64*, i64":818,"##* { <%ID>*, <%ID>*, i32 }":819,"##nnull":820,"##nonnull":821,"## x double], [":822,"<%ID> = getelementptr inbounds [5 x [5 x double]], [5 x [5 x double]]* <%ID>, i64 <INT>, i64 <%ID>":823,"##, i8* <%ID>":824,"##, i8** <%ID>, align 8":825,"<%ID> = getelementptr inbounds [8800 x [8":826,"##* getelementptr inbounds ([3 x i32], [3 x i32]* <@ID>, i64 <INT>, i64 <INT>), align 4":827,"## 1":828,"<%ID> = phi double":829,"##, i8* <%ID>, align 1":830,"<%ID> = bitcast double":831,"<%ID> = getelementptr inbounds [102 x [5 x double]], [102 x [5 x double]]":832,"<%ID> = load { [512 x i8], i32, i32, i32, i32, i32, i32, i32, i32, i32, i32, i32, i32, i32, i32, i64, i64, i32, i32, i32, i8*, i32*, { { opaque*, opaque*, i32, [1 x i64] }, { opaque*, opaque*, i32, [1 x i64] }*, i32, i32, i32, i32, i32, i32, i32, i32, i32, i32, i32*, { opaque*, opaque*, i32, [1 x i64] }**, i8* }*, i32, { i32, i64, i32, i32 }*, [512 x i8], [512 x i8], [512 x i8], [512 x i8], [512 x i8], [512 x i8], [512 x i8], opaque*, opaque*, opaque*, opaque*, opaque*, opaque*, opaque*, [4 x i64], [20 x i32], [4 x i64], [4 x i64], { i32, i32, i32, i64 }*, { i32, i32, i32 }*, i32, i32, i32, i32, i32, i32, i64, i32, i32, i32, i32 }*, { [512 x i8], i32, i32, i32, i32, i32, i32, i32, i32, i32, i32, i32, i32, i32, i32, i64, i64, i32, i32, i32, i8*, i32*, { { opaque*, opaque*, i32, [1 x i64] }, { opaque*, opaque*, i32, [1 x i64] }*, i32, i32, i32, i32, i32, i32, i32, i32, i32, i32, i32*, { opaque*, opaque*, i32, [1 x i64] }**, i8* }*, i32, { i32, i64, i32, i32 }*, [512 x i8], [512 x i8], [512 x i8], [512 x i8], [512 x i8], [512 x i8], [512 x i8], opaque*, opaque*, opaque*, opaque*, opaque*, opaque*, opaque*, [4 x i64], [20 x i32], [4 x i64], [4 x i64], { i32, i32, i32, i64 }*, { i32, i32, i32 }*, i32, i32, i32, i32, i32, i32, i64, i32, i32, i32, i32 }** <%ID>, align 8":833,"## <%ID> to i32":834,"##], [3 x ":835,"<%ID> = load i64, i64* <%ID>, align 8":836,"##]* <%ID>, i64 <INT>, i64 <%ID>":837,"store i32 <INT>, i32* getelementptr inbounds ([6 x [":838,"store ":839,"##[5 x [5 x double]]]* <%ID>, i64 <INT>, i64 <INT>":840,"<%ID> = load i32, i32* <%ID>, align 8":841,"##6 x { double, double }":842,"<%ID> = call i32 (i8*, ...) <@ID>(i8* getelementptr inbounds (":843,"##8800 x [1":844,"<%ID> = getelementptr inbounds [2 x ":845,"##div":846,"<%ID> = load i32, i32* getelementptr inbounds ([3 x i32], [3 x i32]* <@ID>, i64 <INT>, i64 <INT>), align 4":847,"## x i8], [3":848,"##ere":849,"## x i32], [8800":850,"##8800 x i32], [8800":851,"## x i8]* <@ID>, i32 <INT>, i32 <INT>))":852,"<%ID> = getelementptr inbounds [8 x i32], [8 x i32]* <%ID>, i64 <INT>, i64 <INT>":853,"## <@ID>(double":854,"<%ID> = getelementptr inbounds [102 x [5 x double]], [102 x [5 x double]]* <@ID>, i64 <INT>, i64 <%ID>":855,"<%ID> = icmp sle i32 <%ID>, <%ID>":856,"##2 x [2 x [5 x [5 x double]]]]":857,"<@ID> = private unnamed_addr constant [3":858,"##{ i64, i64":859,"##, { <%ID>*, <%ID>*, i32, [1 x i64] }*":860,"##, i8* getelementptr inbounds ([":861,"## <INT>)":862,"<%ID> = getelementptr inbounds { double, double }, { double, double }* <%ID>, i32 <INT>, i32 <INT>":863,"<%ID> = alloca i8":864,"<%ID> = getelementptr inbounds [3 x ":865,"##2 x [2 x i32]]* <%ID>, i64 <INT>, i64 <INT>":866,"ret void":867,"## }* <%ID>, i32 <INT>, i32 <INT>":868,"##{ <%ID>*, <%ID>*, i32, [1 x i64] }, { <%ID>*, <%ID>*, i32, [1 x i64] }*":869,"##{ { <%ID>*, <%ID>*, i32, [1 x i64] }, { <%ID>*, <%ID>*, i32, [1 x i64] }*":870,"##, i32, i32, i32, i32, i32, i32, i32, i32, i32, i32, i32*, { <%ID>*, <%ID>*, i32, [1 x i64] }*":871,"##{ { <%ID>*, <%ID>*, i32, [1 x i64] }, { <%ID>*, <%ID>*, i32, [1 x i64] }*, i32, i32, i32, i32, i32, i32, i32, i32, i32, i32, i32*, { <%ID>*, <%ID>*, i32, [1 x i64] }*":872,"<%ID> = getelementptr inbounds [4":873,"<%ID> = bitcast { double, double }":874,"##8800 x i32], [8800 x i32]* <@ID>, i64 <INT>, i64 <%ID>":875,"<%ID> = getelementptr inbounds [8800 x i32], [8800 x i32]* <@ID>, i64 <INT>, i64 <%ID>":876,"## <@ID>({ i32, i8*, i8*, i8*, i8*, i8*, i8*, i8*, i8*, i8*, i8*, i8*, { opaque*, opaque*, i32 }*, opaque*, i32, i32, i64, i16, i8, [1 x i8], i8*, i64, i8*, i8*, i8*, i8*, i64, i32, [20 x i8] }":877,"## x i32]], ":878,"##{ i32, i32, i32, i64, i32, i8*":879,"##{ i32, i32, i32, i64, i32, i8*, i8":880,"##double]], [5 x ":881,"##* <%ID>, i32":882,"##{ { <%ID>*, <%ID>*, i32, [1 x i64] }, { <%ID>*, <%ID>*, i32, [1 x i64] }*, i32, i32, i32, i32, i32, i32, i32, i32, i32, i32, i32*, { <%ID>*, <%ID>*, i32, [1 x i64] }**, i8* }":883,"##{ i32, i8*, i8*, i8*, i8*, i8*, i8*, i8*, i8*, i8*, i8*, i8*, { opaque*, opaque*, i32 }*, opaque*, i32, i32, i64, i16, i8, [1 x i8], i8*, i64, i8*, i8*, i8*, i8*, i64, i32, [20 x i8] }*":884,"##, i64* <%ID>, align 8":885,"store i32 <INT>, i32* <%ID>, align ":886,"##]], [8800 x [6 x [2 x [2 x i32]]":887,"##8800 x [6 x [2 x [2 x i32]]]], [8800 x [6 x [2 x [2 x i32]]":888,"##600":889,"##34600":890,"store i32 <%ID>, i32* <%ID>":891,"##8800 x [6 x [2 x [2 x i32]]]], [8800 x [6 x [2 x [2 x i32]]]]* <@ID>, i64 <INT>, i64 <%ID>":892,"<%ID> = getelementptr inbounds [8800 x [6 x [2 x [2 x i32]]]], [8800 x [6 x [2 x [2 x i32]]]]* <@ID>, i64 <INT>, i64 <%ID>":893,"## double <FLOAT>, align 8":894,"<%ID> = bitcast { double, double }* <%ID> to i8*":895,"##{ <LABEL>*, <LABEL>*, i32 }":896,"##label { <%ID>*, <%ID>*, i32 }":897,"## n":898,"<%ID> = load i32, i32* <%ID>, align 16":899,"<%ID> = fdiv":900,"<%ID> = phi double [":901,"##* nonnull":902,"<%ID> = getelementptr inbounds [2 x [2":903,"<%ID> = getelementptr inbounds [2 x [2 x i32]], [":904,"store i8* <%ID>":905,"##cal":906,"##local":907,"##local_":908,"##* getelementptr inbounds ([5 x ":909,"##[5 x i32":910,"##[5 x i32], [5":911,"## zer":912,"##iali":913,"##nit":914,"##oinit":915,"## zeroinit":916,"##ializer":917,"## zeroinitializer":918,"<%ID> = getelementptr inbounds [5 x i32], [5":919,"call void <@ID>(i8":920,"##2 x [2 x i32]]], [6 x [":921,"##2 x [2 x i32]]], [6 x [2 x [2 x i32]]":922,"<%ID> = getelementptr inbounds [6 x [2 x [2 x i32]]], [6 x [2 x [2 x i32]]":923,"<%ID> = bitcast double* <%ID> to":924,"##uw":925,"## nuw":926,"##{ i32, i8*, i8*, i8*, i8*, i8*, i8*, i8*, i8*, i8*, i8*, i8*, { opaque*, opaque*, i32 }*, opaque*, i32, i32, i64, i16, i8, [1 x i8], i8*, i64, i8*, i8*, i8*, i8*, i64, i32, [20 x i8] }*, ":927,"<%ID> = alloca i8*, align 8":928,"<%ID> = load { i32, i8*, i8*, i8*, i8*, i8*, i8*, i8*, i8*, i8*, i8*, i8*, { opaque*, opaque*, i32 }*, opaque*, i32, i32, i64, i16, i8, [1 x i8], i8*, i64, i8*, i8*, i8*, i8*, i64, i32, [20 x i8] }*, ":929,"<%ID> = getelementptr inbounds [5 x double], [5 x double]* <%ID>, i64 <%ID>":930,"store i8* <%ID>, i8** <%ID>, align 8":931,"## x i8]* <@ID>, i32 <INT>, i32 <INT>), i8* <%ID>)":932,"##334600":933,"##[5 x [5 x double]]], [5 x ":934,"##{ <LABEL>*, <LABEL>*, i32, [1 x i64] }":935,"## [102 x ":936,"## zeroinitializer, align 16":937,"<%ID> = phi i32 [ <%ID>, <%ID> ], [":938,"##double]* <%ID>, i64 <INT>, i64 <%ID>":939,"##* [":940,"define void":941,"<%ID> = phi i32 [ 0":942,"## x i32]]* <@ID>, i64 <INT>, i64 <INT>, i64 <INT>), align 4":943,"<%ID> = getelementptr inbounds [5 x [5 x [5 x double]]], [5 x ":944,"##[13 x double]], [5 x ":945,"##[13 x double]], [5 x [13 x ":946,"<%ID> = getelementptr inbounds [2 x [2 x i32]], [2 x [2 x i32]]* <%ID>, i64 <INT>, i64 <INT>":947,"## i32 <INT>, <%ID>":948,"##[5 x i32]], ":949,"<%ID> = getelementptr inbounds [5 x [5 x i32]], ":950,"<%ID> = getelementptr inbounds [5 x [5 x i32]], [5 x [5 x i32]]":951,"<%ID> = phi i32 [ <%ID>, <%ID> ]":952,"store i64 <%ID>":953,"##7 x [":954,"##*, <LABEL>*, <LABEL>":955,"<@ID> = common global double <FLOAT>, align 8":956,"##[3 x [5 x [5 x double]]]":957,"<%ID> = phi i32 [ 0, <%ID> ], [ <%ID>, <%ID> ]":958,"##ito":959,"##fp":960,"##itofp":961,"##[5 x [5 x [5 x double]]]":962,"##align 8 <%ID>":963,"##*, [4 x i64], [20 x i32], [4 x i64], [4 x i64], { i32, i32, i32, i64 }*, { i32, i32, i32 }*, i32, i32, i32, i32, i32, i32, i64, i32, i32, i32, i32":964,"<%ID> = sext":965,"<%ID> = sitofp":966,"##unnamed_addr global":967,"store double <FLOAT>, double* getelementptr inbounds ([5 x ":968,"## x i32]], [8800 x [8":969,"##{ <%ID>*, <%ID>*, i32 }*, ":970,"##{ i32, i8*, i8*, i8*, i8*, i8*, i8*, i8*, i8*, i8*, i8*, i8*, { <%ID>*, <%ID>*, i32 }*, ":971,"##<%ID>*, i32, i32, i64, i16, i8, [1 x i8], i8*, i64, i8*, i8*, i8*, i8*, i64, i32, [20 x i8] }":972,"##{ i32, i8*, i8*, i8*, i8*, i8*, i8*, i8*, i8*, i8*, i8*, i8*, { <%ID>*, <%ID>*, i32 }*, <%ID>*, i32, i32, i64, i16, i8, [1 x i8], i8*, i64, i8*, i8*, i8*, i8*, i64, i32, [20 x i8] }":973,"<%ID> = getelementptr inbounds [8800 x [8 x i32]], [8800 x [8":974,"<%ID> = getelementptr inbounds [8800 x [8 x i32]], [8800 x [8 x i32]]* <@ID>, i64 <INT>, i64 <%ID>":975,"<%ID> = call i32 (i8*, ...) <@ID>(i8* getelementptr inbounds ([2":976,"##double], [103 x ":977,"<%ID> = getelementptr inbounds [103 x double], [103 x ":978,"call void <@ID>(i32 <INT>)":979,"##label ":980,"##2 x i8]":981,"## x i8]* <@ID>, i32 <INT>, i32 <INT>), i32":982,"<%ID> = call i32 (i8*, ...) <@ID>(i8* getelementptr inbounds ([3":983,"##], [103 x [3 x ":984,"##[3 x [5 x [5 x double]]]], [103 x [3 x ":985,"## x [3":986,"##6 x i32], [":987,"##6 x i32], [6":988,"##local_unnamed_addr global":989,"##{ i32, i8*, i8*, i8*, i8*, i8*, i8*, i8*, i8*, i8*, i8*, i8*, { opaque*, opaque*, i32 }*, opaque*, i32, i32, i64, i16, i8, [1 x i8], i8*, i64, i8*, i8*, i8*, i8*, i64, i32, [20 x i8] }** <%ID>, align 8":990,"<%ID> = fsub double <FLOAT>, <%ID>":991,"## x i32], [1":992,"##7 x i8]  <STRING>, align 1":993,"## x i8], [4":994,"## x i8], [1":995,"##7 x [2 x [2 x [5 x [5 x double]]]]":996,"## <@ID>({ i32, i8*, i8*, i8*, i8*, i8*, i8*, i8*, i8*, i8*, i8*, i8*, { opaque*, opaque*, i32 }*, opaque*, i32, i32, i64, i16, i8, [1 x i8], i8*, i64, i8*, i8*, i8*, i8*, i64, i32, [20 x i8] }* <%ID>":997,"##[104":998,"##6 x [5 x [5 x i32]]":999,"<%ID> = getelementptr inbounds [6 x i32], [6":1000,"<%ID> = getelementptr inbounds [5 x [5 x [5 x double]]], [5 x [5 x [5 x double]]]":1001,"## i32 <%ID> to double":1002,"<@ID> = external global [":1003,"##[103 x [5 x [5 x double]]]":1004,"<%ID> = sitofp i32 <%ID> to double":1005,"##[3 x [5 x [5 x double]]]], [103 x [3 x [5 x [5 x double]]]]* <@ID>, i64 <INT>, i64 <%ID>":1006,"<%ID> = getelementptr inbounds [103 x [3 x [5 x [5 x double]]]], [103 x [3 x [5 x [5 x double]]]]* <@ID>, i64 <INT>, i64 <%ID>":1007,"##able":1008,"##double]]* <@ID>, i64 <INT>, i64 <INT>, i64 <INT>)":1009,"##, i8*, ...)":1010,"##], [102 x [103 x [103 x double]]":1011,"##[103 x [103 x double]]], [102 x [103 x [103 x double]]":1012,"## f":1013,"##8800 x [6 x [2 x i32]]":1014,"## nsw i32 <%ID>, <%ID>":1015,"<@ID> = private unnamed_addr constant [4":1016,"##nc":1017,"##[13 x double]], [5 x [13 x double]]* <@ID>, i64 <INT>, i64 <INT>, i64 <INT>)":1018,"## i64 <%ID>, <INT>":1019,"store double <%ID>, double* <@ID>, align 8":1020,"## <@ID>(i64":1021,"##[5 x [5 x double]]], [3 x ":1022,"##[103 x [103 x double]]], [102 x [103 x [103 x double]]]* <@ID>, i64 <INT>, i64 <%ID>":1023,"<%ID> = getelementptr inbounds [102 x [103 x [103 x double]]], [102 x [103 x [103 x double]]]* <@ID>, i64 <INT>, i64 <%ID>":1024,"<%ID> = getelementptr inbounds [3 x [5 x [5 x double]]], [3 x ":1025,"##, <LABEL>, <LABEL>":1026,"##[103 x double]":1027,"<%ID> = sext i8":1028,"store i64 <%ID>, i64* <%ID>, align 8":1029,"<%ID> = load i8, i8* <%ID>, align 1":1030,"<%ID> = getelementptr inbounds [103 x double], [103 x double]* <%ID>, i64 <INT>, i64 <%ID>":1031,"##], [102 x [103 x ":1032,"##[103 x [5 x [5 x double]]]], [102 x [103 x ":1033,"<%ID> = sext i8 <%ID> to i32":1034,"##*, [4 x i64], [20 x i32], [4 x i64], [4 x i64], { i32, i32, i32, i64 }*, { i32, i32, i32 }*, i32, i32, i32, i32, i32, i32, i64, i32, i32, i32, i32 }":1035,"##4 x i32]], [6 x [":1036,"##4 x i32]], [6 x [4":1037,"<%ID> = getelementptr inbounds [103 x [5 x double]], [103 x [5 x double]]* <@ID>, i64 <INT>, i64 <%ID>":1038,"<LABEL>: ; preds = { <LABEL>*, <LABEL>*, i32 }":1039,"<%ID> = getelementptr inbounds [3 x [5 x [5 x double]]], [3 x [5 x [5 x double]]]* <%ID>, i64 <INT>, i64 <INT>":1040,"store i32":1041,"##** <%ID>":1042,"##{ { opaque*, opaque*, i32, [1 x i64] }, { opaque*, opaque*, i32, [1 x i64] }*, i32, i32, i32, i32, i32, i32, i32, i32, i32, i32, i32*, { opaque*, opaque*, i32, [1 x i64] }**, i8*":1043,"store double <FLOAT>, double* getelementptr inbounds ([5 x [13 x double]], [5 x [13 x double]]* <@ID>, i64 <INT>, i64 <INT>, i64 <INT>)":1044,"##8800 x [12":1045,"##3 x i8]  <STRING>, align 1":1046,"##gt":1047,"<%ID> = getelementptr inbounds [6 x [2 x [2 x i32]]], [6 x [2 x [2 x i32]]]* <%ID>, i64 <INT>, i64 <INT>":1048,"## i32, align 4":1049,"<%ID> = getelementptr inbounds [103 x [103 x double]":1050,"##], [103 x [103 x double]]":1051,"<%ID> = getelementptr inbounds [103 x [103 x double]], [103 x [103 x double]]":1052,"##], [2":1053,"##{ i32, i8*, i8*, i8*, i8*, i8*, i8*, i8*, i8*, i8*, i8*, i8*, { opaque*, opaque*, i32 }*, opaque*, i32, i32, i64, i16, i8, [1 x i8], i8*, i64, i8*, i8*, i8*, i8*, i64, i32, [20 x i8] }*, i8*, ...)":1054,"##*, i32, { i32, i64, i32, i32 }*, [512 x i8], [512 x i8], [512 x i8], [512 x i8], [512 x i8], [512 x i8], [512 x i8], <%ID>":1055,"##*, <%ID>*, <%ID>*, <%ID>*, <%ID>*, <%ID>*, <%ID>":1056,"##*, i32, { i32, i64, i32, i32 }*, [512 x i8], [512 x i8], [512 x i8], [512 x i8], [512 x i8], [512 x i8], [512 x i8], <%ID>*, <%ID>*, <%ID>*, <%ID>*, <%ID>*, <%ID>*, <%ID>":1057,"<%ID> = getelementptr inbounds [103 x [103 x double]], [103 x [103 x double]]* <%ID>, i64 <INT>, i64 <%ID>":1058,"##]], [8800 x [6 x [2 x [2 x [5 x [5 x i32]]]]":1059,"##8800 x [6 x [2 x [2 x [5 x [5 x i32]]]]]], [8800 x [6 x [2 x [2 x [5 x [5 x i32]]]]":1060,"##se":1061,"##alse":1062,"## false":1063,"##[3 x double]]":1064,"##{ i32, i8*, i8*, i8*, i8*, i8*, i8*, i8*, i8*, i8*, i8*, i8*, { opaque*, opaque*, i32 }*, opaque*, i32, i32, i64, i16, i8, [1 x i8], i8*, i64, i8*, i8*, i8*, i8*, i64, i32, [20 x i8] }*, i8*, ...) <@ID>({ i32, i8*, i8*, i8*, i8*, i8*, i8*, i8*, i8*, i8*, i8*, i8*, { opaque*, opaque*, i32 }*, opaque*, i32, i32, i64, i16, i8, [1 x i8], i8*, i64, i8*, i8*, i8*, i8*, i64, i32, [20 x i8] }* <%ID>":1065,"##[512 x i8], [512 x i8]":1066,"##, i1":1067,"##[103 x [5 x [5 x double]]]], [102 x [103 x [5 x [5 x double]]]]* <@ID>, i64 <INT>, i64 <%ID>":1068,"call void <@ID>(i64":1069,"##8800 x [6 x [2 x [2 x [5 x [5 x i32]]]]]], [8800 x [6 x [2 x [2 x [5 x [5 x i32]]]]]]* <@ID>, i64 <INT>, i64 <%ID>":1070,"##TY":1071,"##P>":1072,"##TYP>":1073,"<%ID> = getelementptr inbounds [102 x [103 x [5 x [5 x double]]]], [102 x [103 x [5 x [5 x double]]]]* <@ID>, i64 <INT>, i64 <%ID>":1074,"<%ID> = load { i32, i8*, i8*, i8*, i8*, i8*, i8*, i8*, i8*, i8*, i8*, i8*, { opaque*, opaque*, i32 }*, opaque*, i32, i32, i64, i16, i8, [1 x i8], i8*, i64, i8*, i8*, i8*, i8*, i64, i32, [20 x i8] }*, { i32, i8*, i8*, i8*, i8*, i8*, i8*, i8*, i8*, i8*, i8*, i8*, { opaque*, opaque*, i32 }*, opaque*, i32, i32, i64, i16, i8, [1 x i8], i8*, i64, i8*, i8*, i8*, i8*, i64, i32, [20 x i8] }** <%ID>, align 8":1075,"<%ID> = getelementptr inbounds double, double* <%ID>, i64 <INT>":1076,"##[5 x [5 x i32]]], [2 x ":1077,"<%ID> = getelementptr inbounds [2 x [5 x [5 x i32]]], [2 x ":1078,"<%ID> = getelementptr inbounds [2 x [5 x [5 x i32]]], [2 x [5 x [5 x i32]]":1079,"<%ID> = getelementptr inbounds [102 x [103 x [103 x [5 x double]]]], [102 x [103 x [103 x [5 x double]]]]* <@ID>, i64 <INT>, i64 <%ID>, i64 <%ID>, i64 <%ID>":1080,"<%ID> = getelementptr inbounds [8800 x [6 x [2 x [2 x [5 x [5 x i32]]]]]], [8800 x [6 x [2 x [2 x [5 x [5 x i32]]]]]]* <@ID>, i64 <INT>, i64 <%ID>":1081,"## 0, <%ID> ]":1082,"## x i32]], [8800 x [6":1083,"##8800 x [6 x i32]], [8800 x [6":1084,"##ac":1085,"<%ID> = load double, double* <%ID>, align 16":1086,"call void <@ID>(i64 <INT>":1087,"## <%ID>, <TYP>":1088,"<%ID> = getelementptr inbounds [2 x [2 x [5 x [5 x i32]]":1089,"##]], [2 x [2 x [5 x [5 x i32]]]]":1090,"<%ID> = getelementptr inbounds [2 x [2 x [5 x [5 x i32]]]], [2 x [2 x [5 x [5 x i32]]]]":1091,"<%ID> = call double":1092,"<%ID> = getelementptr inbounds [8800 x [6 x i32]], [8800 x [6":1093,"<%ID> = getelementptr inbounds [8800 x [6 x i32]], [8800 x [6 x i32]]* <@ID>, i64 <INT>, i64 <%ID>":1094,"<%ID> = load i32*, i32":1095,"store i32 <%ID>, i32* <%ID>, align ":1096,"##8 x [3":1097,"## x i32], [4":1098,"<%ID> = call i32 ({ i32, i8*, i8*, i8*, i8*, i8*, i8*, i8*, i8*, i8*, i8*, i8*, { opaque*, opaque*, i32 }*, opaque*, i32, i32, i64, i16, i8, [1 x i8], i8*, i64, i8*, i8*, i8*, i8*, i64, i32, [20 x i8] }*, i8*, ...) <@ID>({ i32, i8*, i8*, i8*, i8*, i8*, i8*, i8*, i8*, i8*, i8*, i8*, { opaque*, opaque*, i32 }*, opaque*, i32, i32, i64, i16, i8, [1 x i8], i8*, i64, i8*, i8*, i8*, i8*, i64, i32, [20 x i8] }* <%ID>":1099,"## call":1100,"##l call":1101,"##il call":1102,"##2 x [2 x [5 x [5 x i32]]]]], [6 x [":1103,"<%ID> = getelementptr inbounds [6 x [2 x [2 x [5 x [5 x i32]]]]], [6 x [":1104,"<%ID> = getelementptr inbounds [6 x [2 x [2 x [5 x [5 x i32]]]]], [6 x [2 x [2 x [5 x [5 x i32]]]]":1105,"## x double]* <@ID>, i64 <INT>, i64 <%ID>":1106,"<%ID> = getelementptr inbounds [5 x i32], [5 x i32]* <%ID>, i64 <INT>, i64 <INT>":1107,"##[10 x [":1108,"## x i8]* <@ID>, i64 <INT>, i64 <INT>)":1109,"<@ID> = external global i32, align 4":1110,"##{ [512 x i8], i32, i32, i32, i32, i32, i32, i32, i32, i32, i32, i32, i32, i32, i32, i64, i64, i32, i32, i32, i8*, i32*, { { <%ID>*, <%ID>*, i32, [1 x i64] }, { <%ID>*, <%ID>*, i32, [1 x i64] }*, i32, i32, i32, i32, i32, i32, i32, i32, i32, i32, i32*, { <%ID>*, <%ID>*, i32, [1 x i64] }**, i8* }":1111,"##{ [512 x i8], i32, i32, i32, i32, i32, i32, i32, i32, i32, i32, i32, i32, i32, i32, i64, i64, i32, i32, i32, i8*, i32*, { { <%ID>*, <%ID>*, i32, [1 x i64] }, { <%ID>*, <%ID>*, i32, [1 x i64] }*, i32, i32, i32, i32, i32, i32, i32, i32, i32, i32, i32*, { <%ID>*, <%ID>*, i32, [1 x i64] }**, i8* }*, i32, { i32, i64, i32, i32 }*, [512 x i8], [512 x i8], [512 x i8], [512 x i8], [512 x i8], [512 x i8], [512 x i8], <%ID>*, <%ID>*, <%ID>*, <%ID>*, <%ID>*, <%ID>*, <%ID>":1112,"##, i1 false":1113,"##, i1 false)":1114,"<%ID> = getelementptr inbounds [2 x [5 x [5 x i32]]], [2 x [5 x [5 x i32]]]* <%ID>, i64 <INT>, i64 <INT>":1115,"<@ID> = private unnamed_addr constant [1":1116,"##* [ <%ID>, <%ID> ], [ <%ID>, <%ID> ]":1117,"##2 x [6":1118,"<@ID> = external local_unnamed_addr global":1119,"## d":1120,"##eable":1121,"##fere":1122,"##erefere":1123,"##nceable":1124,"## derefere":1125,"## dereferenceable":1126,"<%ID> = getelementptr inbounds [4 x i32], [4":1127,"## i32, i32":1128,"## dereferenceable(":1129,"<%ID> = getelementptr inbounds [2 x [2 x [5 x [5 x i32]]]], [2 x [2 x [5 x [5 x i32]]]]* <%ID>, i64 <INT>, i64 <INT>":1130,"## x i8]* <@ID>, i32 <INT>, i32 <INT>), i32 <%ID>)":1131,"<%ID> = getelementptr inbounds [103 x [5 x [5 x double]]], [103 x [5 x [5 x double]]]* <%ID>, i64 <INT>, i64 <%ID>":1132,"<%ID> = getelementptr inbounds i32, i32":1133,"##, i32, i32, i32, i32, i32":1134,"##{ i32, i8, ":1135,"##[512 x i8], [512 x i8], i32, i32, i32, i32, i32":1136,"##{ i32, i8, [512 x i8], [512 x i8], i32, i32, i32, i32, i32":1137,"<%ID> = getelementptr inbounds [5 x [5 x i32]], [5 x [5 x i32]]* <%ID>, i64 <INT>, i64 <INT>":1138,"##{ <LABEL>*, <LABEL>*, i32, [1 x i64] }*":1139,"<%ID> = mul nuw":1140,"## <@ID>()":1141,"##6 x { double, double }], [2":1142,"## x i32]], [1":1143,"##[5 x [3 x double]]":1144,"## x double]* <%ID>, i64 <INT>, i64 <%ID>":1145,"##7 x ":1146,"##telement <2 x double>":1147,"##6 x i32]], [6 x [":1148,"##6 x i32]], [6 x [6":1149,"##, i8* <%ID>, i8* <%ID>":1150,"store i32 <INT>, i32* <%ID>, align 8":1151,"call void <@ID>(i64 <INT>, i8* <%ID>)":1152,"##3 x i8], [2":1153,"<@ID> = private unnamed_addr constant [23 x i8]  <STRING>, align 1":1154,"##3 x i8], [23":1155,"##6 x { double, double }], [26 x { double, double }":1156,"<%ID> = getelementptr inbounds [26 x { double, double }], [26 x { double, double }":1157,"##* <%ID>, i64 <INT>, i32 <INT>":1158,"store double <FLOAT>, double* <%ID>, align 16":1159,"##[5 x [5 x [5 x double]]]], [":1160,"##, i64 <INT>, i1 false)":1161,"<%ID> = load i32*, i32** <%ID>, align 8":1162,"<%ID> = getelementptr inbounds [11":1163,"##* getelementptr inbounds ([4":1164,"<%ID> = getelementptr inbounds [3":1165,"##{ double, double }, align 8":1166,"<%ID> = alloca { double, double }, align 8":1167,"<%ID> = phi i32 [ <%ID>, <%ID> ], [ 0, <%ID> ]":1168,"<%ID> = getelementptr inbounds [6 x [2 x [2 x [5 x [5 x i32]]]]], [6 x [2 x [2 x [5 x [5 x i32]]]]]* <%ID>, i64 <INT>, i64 <%ID>":1169,"call void <@ID>(i8* ":1170,"store i32 <INT>, i32* getelementptr inbounds ([6 x [6 x i32]], [6 x [6":1171,"##[103 x [103 x [5 x double]]]]":1172,"store i32 <INT>, i32* getelementptr inbounds ([6 x [4 x i32]], [6 x [4":1173,"##32 <INT>":1174,"<%ID> = bitcast i32":1175,"call void <@ID>(double":1176,"##, label { <%ID>*, <%ID>*, i32 }":1177,"<%ID> = getelementpt":1178,"<%ID> = phi i32 [ 1":1179,"## x i32]]* <@ID>, i64 <INT>, i64 <INT>, i64 <INT>), align 8":1180,"<%ID> = mul nuw i64 <%ID>, <%ID>":1181,"<%ID> = getelementptr inbounds [26 x { double, double }], [26 x { double, double }]* <%ID>, i64 <INT>, i64 <INT>":1182,"## x i8], [37":1183,"##7 x i8], [37":1184,"## double*":1185,"<%ID> = fdiv double <FLOAT>, <%ID>":1186,"<%ID> = icmp sgt":1187,"<%ID> = getelementptr inbounds [3 x i32], [3":1188,"## <%ID>, double <%ID>, double":1189,"<%ID> = getelementptr inbounds [8 x double], [":1190,"<%ID> = getelementptr inbounds [8 x double], [8":1191,"##{ i32, i64":1192,"store i32 <INT>, i32* <%ID>, align 16":1193,"## x double]], [":1194,"<%ID> = getelementptr inbounds [5 x [5 x [5 x double]]], [5 x [5 x [5 x double]]]* <%ID>, i64 <INT>, i64 <%ID>":1195,"<%ID> = add i32 <%ID>, <INT>":1196,"##si":1197,"store double <FLOAT>, double* getelementptr inbounds ([5 x [13 x double]], [5 x [13 x double]]* <@ID>, i64 <INT>, i64 <INT>, i64 <INT>), align 8":1198,"<%ID> = phi double [ <%ID>, <%ID> ], [ <%ID>, <%ID> ]":1199,"##, i32 <INT>)":1200,"## i64*":1201,"## x double], [334600":1202,"## getelementptr inbounds (":1203,"<%ID> = add nsw i32 <%ID>, <%ID>":1204,"##{ [512 x i8], i32, i32, i32, i32, i32, i32, i32, i32, i32, i32, i32, i32, i32, i32, i64, i64, i32, i32, i32, i8*, i32*, { { <%ID>*, <%ID>*, i32, [1 x i64] }, { <%ID>*, <%ID>*, i32, [1 x i64] }*, i32, i32, i32, i32, i32, i32, i32, i32, i32, i32, i32*, { <%ID>*, <%ID>*, i32, [1 x i64] }**, i8* }*, i32, { i32, i64, i32, i32 }*, [512 x i8], [512 x i8], [512 x i8], [512 x i8], [512 x i8], [512 x i8], [512 x i8], <%ID>*, <%ID>*, <%ID>*, <%ID>*, <%ID>*, <%ID>*, <%ID>*, [4 x i64], [20 x i32], [4 x i64], [4 x i64], { i32, i32, i32, i64 }*, { i32, i32, i32 }*, i32, i32, i32, i32, i32, i32, i64, i32, i32, i32, i32 }":1205,"##5 x i8]  <STRING>, align 1":1206,"## x i32>":1207,"<@ID> = private unnamed_addr constant [37 x i8]  <STRING>, align 1":1208,"<%ID> = getelementptr ":1209,"<%ID> = getelementptr inbounds i32, i32* <%ID>, i64 <%ID>":1210,"##* <%ID> to double*":1211,"##* <%ID>, double":1212,"## x double]], [8800 x [8":1213,"##rac":1214,"<%ID> = ext":1215,"<%ID> = extrac":1216,"<%ID> = fdiv double <%ID>, <%ID>":1217,"<%ID> = bitcast i8":1218,"## x i8]* <@ID>, i32 <INT>, i32 <INT>), double":1219,"<%ID> = phi i64":1220,"##bitcast (":1221,"##* getelementptr inbounds ([1":1222,"##8800 x [12 x [2 x i32]]":1223,"##3 x i8], [23 x i8]* <@ID>, i32 <INT>, i32 <INT>), i8* <%ID>)":1224,"##, label ":1225,"<%ID> = getelementptr inbounds [102 x [103 x [103 x [5 x double]]]], [102 x [103 x [103 x [5 x double]]]]* <@ID>, i64 <INT>, i64 <%ID>, i64 <%ID>, i64 <%ID>, i64 <INT>":1226,"##8800 x [6 x [5 x [5 x i32]]":1227,"## x double]* <%ID>, i64 <INT>, i64 <INT>":1228,"##, i8* getelementptr inbounds ([1":1229,"<%ID> = call i32 (i8*, ...) <@ID>(i8* getelementptr inbounds ([4":1230,"##align 8 <%ID>, i8* ":1231,"##align 8 <%ID>, i64 <INT>, i1 false)":1232,"##* <@ID>(":1233,"<@ID> = external global [102 x ":1234,"##null":1235,"##nternal ":1236,"## <2 x double>*":1237,"br label { <%ID>*, <%ID>*, i32 }":1238,"<%ID> = phi i64 [":1239,"##{ opaque*, opaque*, i32, [1 x i64] }** <%ID>, align 8":1240,"##{ i32, i64, i32, i32 }":1241,"<%ID> = phi i32 [ 1, <%ID> ], [ <%ID>, <%ID> ]":1242,"<%ID> = call i32 (i8*, ...) <@ID>(i8* getelementptr inbounds ([23 x i8], [23 x i8]* <@ID>, i32 <INT>, i32 <INT>), i8* <%ID>)":1243,"## x double]]* <@ID>, i64 <INT>, i64 <%ID>":1244,"##1)":1245,"##, i64 <INT>, i64 <INT>, i64 <INT>":1246,"##4 x i32]]":1247,"##, i64 <%ID>, i64 <INT>":1248,"<%ID> = getelementptr inbounds [5 x [5 x double]], [5 x [5 x double]]* <%ID>, i64 <%ID>":1249,"##{ i64, i64 }":1250,"<%ID> = alloca i64":1251,"##[104 x ":1252,"##6 x i8]  <STRING>, align 1":1253,"<%ID> = ta":1254,"<%ID> = tail call":1255,"##8 x i8]  <STRING>, align 1":1256,"##, { { opaque*, opaque*, i32, [1 x i64] }, { opaque*, opaque*, i32, [1 x i64] }*, i32, i32, i32, i32, i32, i32, i32, i32, i32, i32, i32*, { opaque*, opaque*, i32, [1 x i64] }**, i8* }":1257,"##{ { opaque*, opaque*, i32, [1 x i64] }, { opaque*, opaque*, i32, [1 x i64] }*, i32, i32, i32, i32, i32, i32, i32, i32, i32, i32, i32*, { opaque*, opaque*, i32, [1 x i64] }**, i8* }, { { opaque*, opaque*, i32, [1 x i64] }, { opaque*, opaque*, i32, [1 x i64] }*, i32, i32, i32, i32, i32, i32, i32, i32, i32, i32, i32*, { opaque*, opaque*, i32, [1 x i64] }**, i8* }":1258,"<%ID> = getelementptr inbounds { { opaque*, opaque*, i32, [1 x i64] }, { opaque*, opaque*, i32, [1 x i64] }*, i32, i32, i32, i32, i32, i32, i32, i32, i32, i32, i32*, { opaque*, opaque*, i32, [1 x i64] }**, i8* }, { { opaque*, opaque*, i32, [1 x i64] }, { opaque*, opaque*, i32, [1 x i64] }*, i32, i32, i32, i32, i32, i32, i32, i32, i32, i32, i32*, { opaque*, opaque*, i32, [1 x i64] }**, i8* }":1259,"## dereferenceable(1)":1260,"##75":1261,"<%ID> = call double <@ID>(double":1262,"##2 x i8]* <@ID>, i32 <INT>, i32 <INT>)":1263,"##8800 x [5 x ":1264,"##[5 x [5 x double]]], [2 x ":1265,"##* nonnull dereferenceable(1)":1266,"##align 8 <%ID>, i8* align 8 <%ID>, i64 <INT>, i1 false)":1267,"<%ID> = call i32 (i8*, ...) <@ID>(i8* getelementptr inbounds ([37 x i8], [37":1268,"<%ID> = getelementptr inbounds [2 x [5 x [5 x double]]], [2 x ":1269,"##2 x i8]  <STRING>, align 1":1270,"##, label <%ID>":1271,"call void <@ID>(i8* align 8 <%ID>, i8* align 8 <%ID>, i64 <INT>, i1 false)":1272,"## = internal ":1273,"<@ID> = internal ":1274,"## x i32], [11":1275,"<%ID> = getelementptr inbounds [8800 x [8 x double]], [8800 x [8":1276,"<%ID> = getelementptr inbounds i8":1277,"##334600 x double], [334600":1278,"<%ID> = load i64, i64* <%ID>":1279,"##334600 x double], [334600 x double]* <@ID>, i64 <INT>, i64 <%ID>":1280,"<%ID> = getelementptr inbounds [334600 x double], [334600 x double]* <@ID>, i64 <INT>, i64 <%ID>":1281,"##* nonnull dereferenceable(1) getelementptr inbounds (":1282,"<%ID> = getelementptr inbounds [8800 x [8 x double]], [8800 x [8 x double]]* <@ID>, i64 <INT>, i64 <%ID>":1283,"##double]* <@ID>, i64 <INT>, i64 <%ID>":1284,"<%ID> = getelementptr inbounds [11 x i32], [11":1285,"## <%ID>, i32 <%ID>)":1286,"<%ID> = getelementptr inbounds [11 x i32], [11 x i32]* <@ID>, i64 <INT>, i64 <%ID>":1287,"<%ID> = getelementptr inbounds [4 x i32], [4 x i32]* <%ID>, i64 <INT>, i64 <%ID>":1288,"##], [8800 x [6 x [2 x i32]]":1289,"##8800 x [6 x [2 x i32]]], [8800 x [6 x [2 x i32]]":1290,"<%ID> = getelementptr inbounds [6 x i32], [6 x i32]* <%ID>, i64 <INT>, i64 <INT>":1291,"##], [7 x [2 x [2 x [5 x [5 x double]]]]":1292,"##7 x [2 x [2 x [5 x [5 x double]]]]], [7 x [2 x [2 x [5 x [5 x double]]]]":1293,"##, i64, i8*":1294,"##{ i32, i32, i32, i32, i32, i32, i32, i32, i32":1295,"##{ i32, i32, i32, i32, i32, i32, i32, i32, i32, i64, i8*":1296,"##7500":1297,"##55":1298,"<%ID> = extractelement <2 x double>":1299,"<%ID> = extractelement <2 x double> <%ID>, <TYP>":1300,"store i8 <INT>":1301,"<%ID> = getelementptr inbounds { { opaque*, opaque*, i32, [1 x i64] }, { opaque*, opaque*, i32, [1 x i64] }*, i32, i32, i32, i32, i32, i32, i32, i32, i32, i32, i32*, { opaque*, opaque*, i32, [1 x i64] }**, i8* }, { { opaque*, opaque*, i32, [1 x i64] }, { opaque*, opaque*, i32, [1 x i64] }*, i32, i32, i32, i32, i32, i32, i32, i32, i32, i32, i32*, { opaque*, opaque*, i32, [1 x i64] }**, i8* }* <%ID>, i32 <INT>, i32 <INT>":1302,"##nd":1303,"##{ i32, i32, i32, i64 }":1304,"<%ID> = add nuw":1305,"## x i8*":1306,"<@ID> = common global [":1307,"br label ":1308,"<%ID> = getelementptr inbounds [8800 x [6 x [2 x i32]]], [8800 x [6 x [2 x i32]]":1309,"<%ID> = getelementptr inbounds [8800 x [6 x [2 x i32]]], [8800 x [6 x [2 x i32]]]* <@ID>, i64 <INT>, i64 <%ID>":1310,"store i32 <%ID>, i32* <%ID>, align 8":1311,"<%ID> = bitcast i32* <%ID> to i8*":1312,"##[10 x [2 x i32]]":1313,"##, <2 x double>":1314,"##{ i32, i32, i32, i32, i32, i32, i32, i32, i32, i64, i8* }":1315,"##*, <LABEL>*, <LABEL>*, <LABEL>*, <LABEL>":1316,"## x i8], [7":1317,"##8800 x [12 x i32]], [":1318,"##7 x [2 x [2 x [5 x [5 x double]]]]], [7 x [2 x [2 x [5 x [5 x double]]]]]* <@ID>, i64 <INT>, i64 <%ID>":1319,"<%ID> = getelementptr inbounds [7 x [2 x [2 x [5 x [5 x double]]]]], [7 x [2 x [2 x [5 x [5 x double]]]]]* <@ID>, i64 <INT>, i64 <%ID>":1320,"<@ID> = internal global":1321,"i32 <INT>":1322,"##7 x i8], [7":1323,"##{ { opaque*, opaque*, i32, [1 x i64] }, { opaque*, opaque*, i32, [1 x i64] }*, i32, i32, i32, i32, i32, i32, i32, i32, i32, i32, i32*, { opaque*, opaque*, i32, [1 x i64] }**, i8* }** <%ID>, align 8":1324,"<%ID> = fcmp ":1325,"##, i64 <INT>, i64 <%ID>":1326,"##{ i32, i32":1327,"##9 x i8]  <STRING>, align 1":1328,"##{ { opaque*, opaque*, i32, [1 x i64] }, { opaque*, opaque*, i32, [1 x i64] }*, i32, i32, i32, i32, i32, i32, i32, i32, i32, i32, i32*, { opaque*, opaque*, i32, [1 x i64] }**, i8* }*, ":1329,"##double]* <%ID>, i64 <INT>, i64 <INT>":1330,"##{ opaque*, opaque*, i32, [1 x i64] }*, ":1331,"<%ID> = mul nsw i32 <INT>, <%ID>":1332,"##8800 x [5 x [5 x [5 x double]]]], [":1333,"##8800 x [5 x [5 x [5 x double]]]], [8800 x [5 x ":1334,"##8800 x [12 x i32]], [8800 x [12":1335,"<%ID> = bitcast double* <%ID> to <2 x double>*":1336,"<%ID> = getelementptr inbounds [8800 x [12 x i32]], [8800 x [12":1337,"<%ID> = getelementptr inbounds [8800 x [12 x i32]], [8800 x [12 x i32]]* <@ID>, i64 <INT>, i64 <%ID>":1338,"store i64 <INT>":1339,"call void <@ID>(":1340,"## x i8]* <@ID>, i32 <INT>, i32 <INT>), double <%ID>)":1341,"<%ID> = load double, double* <%ID>":1342,"## x i32]]* <@ID>, i64 <INT>, i64 <INT>, i64 <INT>), align 16":1343,"<%ID> = load { { opaque*, opaque*, i32, [1 x i64] }, { opaque*, opaque*, i32, [1 x i64] }*, i32, i32, i32, i32, i32, i32, i32, i32, i32, i32, i32*, { opaque*, opaque*, i32, [1 x i64] }**, i8* }*, ":1344,"## nsw i64 <%ID>, <INT>":1345,"br i1 ":1346,"<%ID> = tail call i32":1347,"##2 x i32]], [6 x [":1348,"<%ID> = getelementptr inbounds [6 x [2 x i32]], [6 x [":1349,"<%ID> = getelementptr inbounds [6 x [2 x i32]], [6 x [2 x i32]]":1350,"<%ID> = getelementptr inbounds [5 x [5 x i32]], [5 x [5 x i32]]* <%ID>, i64 <INT>, i64 <%ID>":1351,"<%ID> = getelementptr inbounds [5 x i32], [5 x i32]* <%ID>, i64 <INT>, i64 <%ID>":1352,"<%ID> = load { { opaque*, opaque*, i32, [1 x i64] }, { opaque*, opaque*, i32, [1 x i64] }*, i32, i32, i32, i32, i32, i32, i32, i32, i32, i32, i32*, { opaque*, opaque*, i32, [1 x i64] }**, i8* }*, { { opaque*, opaque*, i32, [1 x i64] }, { opaque*, opaque*, i32, [1 x i64] }*, i32, i32, i32, i32, i32, i32, i32, i32, i32, i32, i32*, { opaque*, opaque*, i32, [1 x i64] }**, i8* }** <%ID>, align 8":1353,"##], [2 x [2 x [5 x [5 x double]]]]":1354,"<%ID> = getelementptr inbounds [2 x [2 x ":1355,"##[5 x [5 x double]]]], [2 x [2 x [5 x [5 x double]]]]":1356,"<%ID> = getelementptr inbounds [2 x [2 x [5 x [5 x double]]]], [2 x [2 x [5 x [5 x double]]]]":1357,"##, <%ID> ], [":1358,"<%ID> = getelementptr inbounds [2 x [5 x [5 x double]]], [2 x [5 x [5 x double]]]* <%ID>, i64 <INT>, i64 <INT>":1359,"## <FLOAT>)":1360,"##[5 x [5 x double]]** <%ID>, align 8":1361,"<%ID> = phi ":1362,"store double <FLOAT>, double* <@ID>, align 8":1363,"<%ID> = fcmp o":1364,"##, i8* getelementptr inbounds ([2":1365,"##4 x i32]":1366,"i32 <INT>, label <%ID>":1367,"<%ID> = phi double [ <%ID>, <%ID> ]":1368,"<%ID> = getelementptr inbounds i8, i8* <%ID>":1369,"define void <@ID>(i32":1370,"<%ID> = alloca double*, ":1371,"<%ID> = alloca double*, align 8":1372,"##2 x [4 x i32]]":1373,"<%ID> = getelementptr inbounds [2 x [2 x [5 x [5 x double]]]], [2 x [2 x [5 x [5 x double]]]]* <%ID>, i64 <INT>, i64 <INT>":1374,"##2 x i32], [1":1375,"<%ID> = getelementptr inbounds [12 x i32], [1":1376,"<%ID> = getelementptr inbounds [12 x i32], [12":1377,"<@ID> = external local_unnamed_addr global double, align 8":1378,"## x i8]* <@ID>, i32 <INT>, i32 <INT>), i8* getelementptr inbounds ([":1379,"##double]]* <%ID>, i64 <INT>, i64 <%ID>":1380,"<%ID> = getelementptr inbounds [103 x [103 x [5 x double]]], [103 x [103 x [5 x double]]]* <@ID>, i64 <INT>, i64 <%ID>, i64 <%ID>, i64 <INT>":1381,"<%ID> = sub nsw i32 <%ID>, <%ID>":1382,"## x i32]], [8 x [3":1383,"##{ i64, i64 }, ":1384,"<%ID> = load { i32, i8*, i8*, i8*, i8*, i8*, i8*, i8*, i8*, i8*, i8*, i8*, { opaque*, opaque*, i32 }*, opaque*, i32, i32, i64, i16, i8, [1 x i8], i8*, i64, i8*, i8*, i8*, i8*, i64, i32, [20 x i8] }*, { i32, i8*, i8*, i8*, i8*, i8*, i8*, i8*, i8*, i8*, i8*, i8*, { opaque*, opaque*, i32 }*, opaque*, i32, i32, i64, i16, i8, [1 x i8], i8*, i64, i8*, i8*, i8*, i8*, i64, i32, [20 x i8] }*":1385,"<%ID> = bitcast double* <%ID> to i64*":1386,"<%ID> = getelementptr inbounds [12 x i32], [12 x i32]* <%ID>, i64 <INT>, i64 <INT>":1387,"<LABEL>: ; preds = <LABEL>, <LABEL>, <LABEL>":1388,"<%ID> = getelementptr inbounds { i64, i64 }, ":1389,"##4 x i32>":1390,"##{ i32, i8*, i8*, i8*, i8*, i8*, i8*, i8*, i8*, i8*, i8*, i8*, { opaque*, opaque*, i32 }*, opaque*, i32, i32, i64, i16, i8, [1 x i8], i8*, i64, i8*, i8*, i8*, i8*, i64, i32, [20 x i8] }* <%ID>, ":1391,"##tr":1392,"##ult":1393,"<%ID> = icmp ult":1394,"br i1 { <%ID>*, <%ID>*, i32 }":1395,"##* <%ID>, double** <%ID>, align 8":1396,"store double* <%ID>, double** <%ID>, align 8":1397,"store double <%ID>, double* <%ID>":1398,"## x i8]* <%ID>, i32 <INT>, i32 <INT>":1399,"store i64 <INT>, i64* <%ID>, align 8":1400,"##{ i32, i32, i32, i64, i32, i8*, i8 }":1401,"store i8 <INT>, i8* <%ID>, align 1":1402,"##* <%ID>, i8* getelementptr inbounds ([":1403,"<%ID> = load { i32, i8*, i8*, i8*, i8*, i8*, i8*, i8*, i8*, i8*, i8*, i8*, { opaque*, opaque*, i32 }*, opaque*, i32, i32, i64, i16, i8, [1 x i8], i8*, i64, i8*, i8*, i8*, i8*, i64, i32, [20 x i8] }*, { i32, i8*, i8*, i8*, i8*, i8*, i8*, i8*, i8*, i8*, i8*, i8*, { opaque*, opaque*, i32 }*, opaque*, i32, i32, i64, i16, i8, [1 x i8], i8*, i64, i8*, i8*, i8*, i8*, i64, i32, [20 x i8] }** <@ID>, align 8":1404,"##2 x [6 x i32]], [1":1405,"##2 x [6 x i32]], [12 x [6":1406,"##], [4":1407,"<%ID> = call i32 ({ i32, i8*, i8*, i8*, i8*, i8*, i8*, i8*, i8*, i8*, i8*, i8*, { opaque*, opaque*, i32 }*, opaque*, i32, i32, i64, i16, i8, [1 x i8], i8*, i64, i8*, i8*, i8*, i8*, i64, i32, [20 x i8] }*, i8*, ...) <@ID>({ i32, i8*, i8*, i8*, i8*, i8*, i8*, i8*, i8*, i8*, i8*, i8*, { opaque*, opaque*, i32 }*, opaque*, i32, i32, i64, i16, i8, [1 x i8], i8*, i64, i8*, i8*, i8*, i8*, i64, i32, [20 x i8] }* <%ID>, i8* getelementptr inbounds ([":1408,"## 1, <%ID> ]":1409,"<LABEL>: ; preds = <LABEL>, <LABEL>, <LABEL>, <LABEL>":1410,"##{ <LABEL>*, <LABEL>*, i32, [1 x i64] }, ":1411,"##1 x i8]  <STRING>, align 1":1412,"##{ { <LABEL>*, <LABEL>*, i32, [1 x i64] }, ":1413,"##, i32, i32, i32, i32, i32, i32, i32, i32, i32, i32, i32*, { <LABEL>*, <LABEL>*, i32, [1 x i64] }*":1414,"##{ <LABEL>*, <LABEL>*, i32, [1 x i64] }*, i32, i32, i32, i32, i32, i32, i32, i32, i32, i32, i32*, { <LABEL>*, <LABEL>*, i32, [1 x i64] }*":1415,"##{ { <LABEL>*, <LABEL>*, i32, [1 x i64] }, { <LABEL>*, <LABEL>*, i32, [1 x i64] }*, i32, i32, i32, i32, i32, i32, i32, i32, i32, i32, i32*, { <LABEL>*, <LABEL>*, i32, [1 x i64] }*":1416,"##{ { <LABEL>*, <LABEL>*, i32, [1 x i64] }, { <LABEL>*, <LABEL>*, i32, [1 x i64] }*, i32, i32, i32, i32, i32, i32, i32, i32, i32, i32, i32*, { <LABEL>*, <LABEL>*, i32, [1 x i64] }**, i8* }":1417,"<%ID> = load { opaque*, opaque*, i32, [1 x i64] }*, ":1418,"## i32 <INT>, align 4":1419,"## x [2":1420,"##{ i64*, i64*, i64 }*":1421,"<%ID> = load i64*, i64":1422,"##, { <LABEL>*, <LABEL>*, i32 }":1423,"<%ID> = getelementptr inbounds [16":1424,"<@ID> = private unnamed_addr constant [5":1425,"##[515":1426,"<%ID> = getelementptr i":1427,"##double], [3 x ":1428,"<%ID> = getelementptr inbounds [3 x double], [3 x ":1429,"<%ID> = sub nsw":1430,"<%ID> = load { opaque*, opaque*, i32, [1 x i64] }*, { opaque*, opaque*, i32, [1 x i64] }** <%ID>, align 8":1431,"<%ID> = icmp sgt i32 <%ID>, <%ID>":1432,"<%ID> = load i64*, i64** <%ID>, align 8":1433,"##* <@ID>, i64 <INT>, i64 <INT>), i64 <INT>, i64 <%ID>":1434,"<@ID> = external global ":1435,"##8 x [3 x i32]], [8 x [3":1436,"##400":1437,"## x double], ":1438,"<%ID> = getelementptr inbounds [6 x [2 x [2 x i32]]], [6 x [2 x [2 x i32]]]* <%ID>, i64 <INT>, i64 <%ID>":1439,"<%ID> = getelementptr i8":1440,"## i1":1441,"<%ID> = alloca double":1442,"##* getelementptr inbounds ([12 x [6 x i32]], [12 x [6":1443,"##[102 x [103 x [103 x [5 x double]]]], [102 x [103 x [103 x [5 x double]]":1444,"store <2 x double>":1445,"<%ID> = alloca [":1446,"<%ID> = bitcast i8* <%ID> to double*":1447,"##[102 x [103 x [103 x [5 x double]]]]":1448,"## <%ID>, i32 <%ID>, i32 <%ID>, i32 <%ID>, i32":1449,"##[5 x [5 x double]]*, ":1450,"<%ID> = load [5 x [5 x double]]*, ":1451,"<%ID> = tail call i32 (":1452,"## x i32], align 16":1453,"##[102 x [103 x [103 x [5 x double]]]], [102 x [103 x [103 x [5 x double]]]]":1454,"##], [2 x [5 x [3 x double]]":1455,"##[5 x [3 x double]]], [2 x [5 x [3 x double]]":1456,"## <%ID>, double <%ID>)":1457,"##[5 x [5 x double]]* <%ID>, ":1458,"store i32 <INT>, i32* getelementptr inbounds ([8 x [3 x i32]], [8 x [3":1459,"store i32 <INT>, i32* getelementptr inbounds ([6 x [6 x i32]], [6 x [6 x i32]]* <@ID>, i64 <INT>, i64 <INT>, i64 <INT>), align 4":1460,"store i32* <%ID>, i32":1461,"<%ID> = getelementptr inbounds { i64*, i64*, i64":1462,"store i32 <INT>, i32* getelementptr inbounds ([6 x [4 x i32]], [6 x [4 x i32]]* <@ID>, i64 <INT>, i64 <INT>, i64 <INT>), align 4":1463,"<%ID> = getelementptr inbounds [5 x double], [5 x double]* <%ID>, i32 <INT>, i32 <INT>":1464,"<%ID> = getelementptr inbounds [5 x [5 x [5 x double]]], [5 x [5 x [5 x double]]]* <%ID>, i32 <INT>, i32 <INT>":1465,"<%ID> = getelementptr inbounds i64, i64":1466,"##, i64, double":1467,"##, i64, i32, i64, double":1468,"##{ i32, i32, i64, i32, i64, double":1469,"store i32 <INT>, i32* getelementptr inbounds ([12 x [6 x i32]], [12 x [6":1470,"## [102 x [103 x [103 x [5 x double]]]]":1471,"##6 x double":1472,"<%ID> = call i32 (i8*, ...) <@ID>(i8* nonnull dereferenceable(1) getelementptr inbounds (":1473,"##0 x i8]  <STRING>, align 1":1474,"## c":1475,"## c\"":1476,"<%ID> = getelementptr inbounds [6 x i32], [6 x i32]* <%ID>, i64 <INT>, i64 <%ID>":1477,"##gn":1478,"##sign":1479,"##signext":1480,"## x i8] c\"":1481,"##* <%ID>, i32 <%ID>)":1482,"## i8* <@ID>(":1483,"## signext":1484,"<%ID> = load [5 x [5 x double]]*, [5 x [5 x double]]** <%ID>, align 8":1485,"## x i8], [5":1486,"## x i8], [16":1487,"##osi":1488,"##ptosi":1489,"<%ID> = fptosi":1490,"<%ID> = fptosi double":1491,"<%ID> = fptosi double <%ID> to i32":1492,"<%ID> = getelementptr inbounds [103 x [5 x [5 x double]]], [103 x [5 x [5 x double]]]* <@ID>, i64 <INT>, i64 <%ID>, i64 <INT>, i64 <INT>":1493,"##, i8 signext":1494,"<%ID> = call i32 <@ID>(i8":1495,"<%ID> = getelementptr inbounds [64":1496,"##* <@ID>, i64 <INT>, i64 <INT>, i64 <INT>":1497,"##{ opaque*, opaque*, i32, [1 x i64] }, { opaque*, opaque*, i32, [1 x i64] }":1498,"## void <@ID>(i32":1499,"## (...)":1500,"## (...) <@ID>()":1501,"define i32":1502,"<%ID> = getelementptr inbounds { opaque*, opaque*, i32, [1 x i64] }, { opaque*, opaque*, i32, [1 x i64] }":1503,"##7 x i8], [2":1504,"##{ i32, i32, i32, i64 }, ":1505,"##{ i32, i32, i32, i64, i32, i8*, i8 }, ":1506,"store i32 ":1507,"define i":1508,"##4 x i8]  <STRING>, align 1":1509,"<%ID> = getelementptr inbounds [8 x i32], [8 x i32]* <%ID>, i64 <INT>, i64 <%ID>":1510,"store double <FLOAT>, double* getelementptr inbounds ([5 x [13 x double]], [5 x [13 x double]]* <@ID>, i64 <INT>, i64 <INT>, i64 <INT>), align 16":1511,"<%ID> = getelementptr inbounds { i32, i32, i32, i64, i32, i8*, i8 }, ":1512,"## x i8]* <@ID>, i32 <INT>, i32 <INT>), i8** <%ID>, align 8":1513,"##8800 x [5 x [5 x [5 x double]]]], [8800 x [5 x [5 x [5 x double]]]]* <@ID>, i64 <INT>, i64 <%ID>":1514,"<%ID> = call ":1515,"<%ID> = getelementptr inbounds [8800 x [5 x [5 x [5 x double]]]], [8800 x [5 x [5 x [5 x double]]]]* <@ID>, i64 <INT>, i64 <%ID>":1516,"<%ID> = getelementptr inbounds { double, double }, { double, double }* <%ID>, i64 <%ID>":1517,"<%ID> = getelementptr inbounds i64, i64* <%ID>, i64 <%ID>":1518,"##70":1519,"##7 x i8], [27":1520,"<%ID> = call i32 <@ID>({ i32, i8*, i8*, i8*, i8*, i8*, i8*, i8*, i8*, i8*, i8*, i8*, { opaque*, opaque*, i32 }*, opaque*, i32, i32, i64, i16, i8, [1 x i8], i8*, i64, i8*, i8*, i8*, i8*, i64, i32, [20 x i8] }":1521,"##, i64 <INT>, i64 <INT>, i64 <INT>, i64 <INT>":1522,"store i8* getelementptr inbounds ([":1523,"##{ i32, i32, i32 }":1524,"##, i32 <%ID>)":1525,"<%ID> = getelementptr inbounds { i32, i32, i32, i64 }, ":1526,"<%ID> = getelementptr inbounds [8 x double], [8 x double]* <%ID>, i64 <INT>, i64 <%ID>":1527,"##3 x i8], [3":1528,"## <%ID>, i32 <%ID>, i32 <%ID>)":1529,"<%ID> = phi i32 [ <%ID>, <%ID> ], [ 1, <%ID> ]":1530,"##[5 x double]* <%ID>, ":1531,"##12":1532,"##2 x double]":1533,"<@ID> = common local_unnamed_addr global":1534,"<%ID> = mul nsw i32 <%ID>, <INT>":1535,"##[5 x double], align 16":1536,"##[2 x [4 x i32]]":1537,"##{ i32, i64, i32, i32 }, ":1538,"<%ID> = getelementptr inbounds [3 x i32], [3 x i32]* <%ID>, i64 <INT>, i64 <%ID>":1539,"<%ID> = alloca i64, align 8":1540,"<%ID> = getelementptr inbounds [5 x [5 x double]], [5 x [5 x double]]* <@ID>, i64 <INT>, i64 <%ID>":1541,"##, i8* nonnull":1542,"<%ID> = getelementptr inbounds { opaque*, opaque*, i32, [1 x i64] }, { opaque*, opaque*, i32, [1 x i64] }* <%ID>, i32 <INT>, i32 <INT>":1543,"##], [8800 x [12 x [2 x i32]]":1544,"##8800 x [12 x [2 x i32]]], [8800 x [12 x [2 x i32]]":1545,"<%ID> = getelementptr inbounds [102 x [103 x [103 x [5 x double]]]], [102 x [103 x [103 x [5 x double]]]]* <@ID>, i64 <INT>, i64 <%ID>, i64 <%ID>, i64 <%ID>, i64 <%ID>":1546,"<%ID> = getelementptr inbounds { i32, i64, i32, i32 }, ":1547,"##nser":1548,"<%ID> = inser":1549,"##* bitcast (":1550,"## x i8], [6":1551,"<%ID> = a":1552,"<%ID> = bitcast double* <%ID> to i8*":1553,"##50":1554,"<%ID> = load i32, i32* { <%ID>*, <%ID>*, i32 }":1555,"call void (...) <@ID>()":1556,"<%ID> = getelementptr inbounds [8800 x [12 x [2 x i32]]], [8800 x [12 x [2 x i32]]":1557,"<%ID> = getelementptr inbounds [8800 x [12 x [2 x i32]]], [8800 x [12 x [2 x i32]]]* <@ID>, i64 <INT>, i64 <%ID>":1558,"##64 x double]* <@ID>, i64 <INT>, i64 <%ID>":1559,"## x double], [64 x double]* <@ID>, i64 <INT>, i64 <%ID>":1560,"##, i8* <%ID>, i8* <%ID>, i8* <%ID>, i8* <%ID>":1561,"<%ID> = getelementptr inbounds [64 x double], [64 x double]* <@ID>, i64 <INT>, i64 <%ID>":1562,"store i32 <%ID>, i32* <%ID>, align 16":1563,"##* <@ID>, i64 <INT>, i64 <INT>, i64 <INT>, i64 <INT>)":1564,"##[6":1565,"ta":1566,"tail call":1567,"<%ID> = alloca i32*, align 8":1568,"<%ID> = add i32 <%ID>, <%ID>":1569,"## to i8*":1570,"##8 x i32]], [6 x [":1571,"##8 x i32]], [6 x [8":1572,"##<LABEL>":1573,"##]], [8800 x [6 x [5 x [5 x i32]]":1574,"##8800 x [6 x [5 x [5 x i32]]]], [8800 x [6 x [5 x [5 x i32]]":1575,"<%ID> = getelementptr inbounds [6 x [2 x i32]], [6 x [2 x i32]]* <%ID>, i64 <INT>, i64 <INT>":1576,"##], [6":1577,"##{ i32, i32, i32, i64, i32, i8*, i8 }* <%ID>, i32 <INT>, i32 <INT>":1578,"<%ID> = getelementptr inbounds { i32, i32, i32, i64, i32, i8*, i8 }, { i32, i32, i32, i64, i32, i8*, i8 }* <%ID>, i32 <INT>, i32 <INT>":1579,"## }, { i64*, i64*, i64":1580,"<%ID> = getelementptr inbounds { i64*, i64*, i64 }, { i64*, i64*, i64":1581,"## i32 <INT> to":1582,"##4 x i8], [4":1583,"##, i32* ":1584,"##double], [102 x ":1585,"##70400":1586,"<%ID> = getelementptr inbounds [6 x double":1587,"<%ID> = getelementptr inbounds [6 x double], [6":1588,"<%ID> = getelementptr inbounds [16 x i8], [16":1589,"##{ i64, i64 }* <%ID>, i32 <INT>, i32 <INT>":1590,"<%ID> = getelementptr inbounds { i64, i64 }, { i64, i64 }* <%ID>, i32 <INT>, i32 <INT>":1591,"<%ID> = getelementptr inbounds [10 x [":1592,"##[103 x [103 x double]]], align 16":1593,"<%ID> = getelementptr inbounds [102 x double], [102 x ":1594,"<%ID> = getelementptr inbounds [102 x double], [102 x double]* <@ID>, i64 <INT>, i64 <%ID>":1595,"## <4 x i32>":1596,"store i32* <%ID>, i32** <%ID>, align 8":1597,"##* <@ID>, i32 <INT>, i32 <INT>, i32 <INT>, i32 <INT>":1598,"##4 x [2":1599,"<%ID> = getelementptr inbounds [8800 x [6 x [5 x [5 x i32]]]], [8800 x [6 x [5 x [5 x i32]]":1600,"<%ID> = getelementptr inbounds [8800 x [6 x [5 x [5 x i32]]]], [8800 x [6 x [5 x [5 x i32]]]]* <@ID>, i64 <INT>, i64 <%ID>":1601,"##nternal":1602,"define internal":1603,"##und":1604,"##undef":1605,"##align 4":1606,"##, <2 x double>* <%ID>, align 8":1607,"<%ID> = phi i32 [ ":1608,"## x i8], [25":1609,"##2 x [2 x i32]], [1":1610,"<%ID> = getelementptr inbounds [12 x [2 x i32]], [1":1611,"<%ID> = getelementptr inbounds i8, i8* <%ID>, i64 <INT>":1612,"##[6 x double]":1613,"un":1614,"##hable":1615,"##reac":1616,"unreac":1617,"unreachable":1618,"<%ID> = sub nsw i32 <INT>, <%ID>":1619,"<%ID> = getelementptr inbounds [8 x double], [8 x double]* <%ID>, i64 <INT>, i64 <INT>":1620,"##2 x i8*":1621,"##[6 x ":1622,"##* { i32, i8*, i8*, i8*, i8*, i8*, i8*, i8*, i8*, i8*, i8*, i8*, { <%ID>*, <%ID>*, i32 }*, <%ID>*, i32, i32, i64, i16, i8, [1 x i8], i8*, i64, i8*, i8*, i8*, i8*, i64, i32, [20 x i8] }":1623,"##unnamed_addr":1624,"##[103 x [103 x [5 x double]]]], align 16":1625,"<%ID> = getelementptr inbounds [7 x ":1626,"<%ID> = getelementptr inbounds { [512 x i8], i32, i32, i32, i32, i32, i32, i32, i32, i32, i32, i32, i32, i32, i32, i64, i64, i32, i32, i32, i8*, i32*, { { opaque*, opaque*, i32, [1 x i64] }, { opaque*, opaque*, i32, [1 x i64] }*, i32, i32, i32, i32, i32, i32, i32, i32, i32, i32, i32*, { opaque*, opaque*, i32, [1 x i64] }**, i8* }*, i32, { i32, i64, i32, i32 }*, [512 x i8], [512 x i8], [512 x i8], [512 x i8], [512 x i8], [512 x i8], [512 x i8], opaque*, opaque*, opaque*, opaque*, opaque*, opaque*, opaque*, [4 x i64], [20 x i32], [4 x i64], [4 x i64], { i32, i32, i32, i64 }*, { i32, i32, i32 }*, i32, i32, i32, i32, i32, i32, i64, i32, i32, i32, i32 }, { [512 x i8], i32, i32, i32, i32, i32, i32, i32, i32, i32, i32, i32, i32, i32, i32, i64, i64, i32, i32, i32, i8*, i32*, { { opaque*, opaque*, i32, [1 x i64] }, { opaque*, opaque*, i32, [1 x i64] }*, i32, i32, i32, i32, i32, i32, i32, i32, i32, i32, i32*, { opaque*, opaque*, i32, [1 x i64] }**, i8* }*, i32, { i32, i64, i32, i32 }*, [512 x i8], [512 x i8], [512 x i8], [512 x i8], [512 x i8], [512 x i8], [512 x i8], opaque*, opaque*, opaque*, opaque*, opaque*, opaque*, opaque*, [4 x i64], [20 x i32], [4 x i64], [4 x i64], { i32, i32, i32, i64 }*, { i32, i32, i32 }*, i32, i32, i32, i32, i32, i32, i64, i32, i32, i32, i32 }* <%ID>, i64 <INT>, i32 <INT>":1627,"store i32 { <%ID>*, <%ID>*, i32 }":1628,"##[2 x i32]":1629,"##2 x i8]* <@ID>, i32 <INT>, i32 <INT>))":1630,"##7 x [5 x ":1631,"## x i32]], align 16":1632,"<%ID> = getelementptr inbounds [6 x [4 x i32]], [6 x [4":1633,"<%ID> = add nuw nsw i32 <%ID>, <INT>":1634,"##3 x { double, double }":1635,"store i8 <%ID>":1636,"define void <@ID>()":1637,"## x [10 x [2 x i32]]":1638,"##], [102 x [6 x ":1639,"##[6 x double]], [102 x [6 x ":1640,"<%ID> = getelementptr i8, i8* <%ID>":1641,"## to i8*)":1642,"<@ID> = private unnamed_addr constant [25 x i8]  <STRING>, align 1":1643,"<%ID> = extractelement <2 x double> <%ID>, <TYP> 0":1644,"<%ID> = insertelement <2 x double>":1645,"<%ID> = extractelement <2 x double> <%ID>, <TYP> 1":1646,"<%ID> = call double <@ID>(double <%ID>)":1647,"<%ID> = load <2 x double>":1648,"##, i32 <INT>, double":1649,"<%ID> = getelementptr inbounds [102 x [6 x double]], [102 x [6 x ":1650,"<%ID> = call i32 (i8*, ...) <@ID>(i8* getelementptr inbounds ([1":1651,"<%ID> = getelementptr inbounds { i64*, i64*, i64 }, { i64*, i64*, i64 }* <%ID>, i32 <INT>, i32 <INT>":1652,"## x i8]* <@ID>, i32 <INT>, i32 <INT>), i8* getelementptr inbounds ([1":1653,"<@ID> = private unnamed_addr constant [7 x i8]  <STRING>, align 1":1654,"<@ID> = private unnamed_addr constant [3 x i8]  <STRING>, align 1":1655,"##double], [1":1656,"<%ID> = getelementptr inbounds [13 x ":1657,"##double], [13 x ":1658,"<%ID> = getelementptr inbounds [13 x double], [13 x ":1659,"##], [6 x [5 x [5 x i32]]":1660,"<%ID> = getelementptr inbounds [6 x [5 x [5 x i32]]":1661,"<%ID> = getelementptr inbounds [6 x [5 x [5 x i32]]], [6 x [5 x [5 x i32]]":1662,"<%ID> = getelementptr inbounds [13 x double], [13 x double]* <%ID>, i64 <INT>, i64 <INT>":1663,"store i32 <INT>, i32* <%ID>":1664,"store i8 <%ID>, i8* <%ID>, align 1":1665,"##{ i64*, i64*, i64 }** <%ID>, align 8":1666,"##{ opaque*, opaque*, i32, [1 x i64] }* <%ID>, ":1667,"##unc":1668,"##trunc":1669,"<%ID> = trunc":1670,"<%ID> = bitcast i8* <%ID> to":1671,"<%ID> = tail call i32 (i8*, ...) <@ID>(i8":1672,"##[5 x [3 x double]]], [2 x [5 x [3 x double]]]":1673,"##6 x i8], [6":1674,"<%ID> = trunc i64":1675,"<%ID> = getelementptr inbounds [12 x [2 x i32]], [12 x [2 x i32]]* <%ID>, i64 <INT>, i64 <INT>":1676,"##* getelementptr inbounds ([5 x double], [5 x double]":1677,"##], [20":1678,"<%ID> = getelementptr inbounds [3 x i32], [3 x i32]* <%ID>, i64 <INT>, i64 <INT>":1679,"<%ID> = getelementptr i8, i8* <%ID>, i64 <%ID>":1680,"##[5 x double]], [5 x [5 x double]]* <@ID>, i64 <INT>, i64 <INT>, i64 <INT>)":1681,"ret i32 <%ID>":1682,"## undef":1683,"##5 x i8], [25":1684,"##*, i32, { i32, i64, i32, i32 }*, [512 x i8], [512 x i8], [512 x i8], [512 x i8], [512 x i8], [512 x i8], [512 x i8], <LABEL>":1685,"##*, <LABEL>*, <LABEL>*, <LABEL>*, <LABEL>*, <LABEL>*, <LABEL>":1686,"##*, i32, { i32, i64, i32, i32 }*, [512 x i8], [512 x i8], [512 x i8], [512 x i8], [512 x i8], [512 x i8], [512 x i8], <LABEL>*, <LABEL>*, <LABEL>*, <LABEL>*, <LABEL>*, <LABEL>*, <LABEL>":1687,"## x i32], ":1688,"##24":1689,"##*, i32, { i32, i64, i32, i32 }*, [512 x i8], [512 x i8], [512 x i8], [512 x i8], [512 x i8], [512 x i8], [512 x i8], <LABEL>*, <LABEL>*, <LABEL>*, <LABEL>*, <LABEL>*, <LABEL>*, <LABEL>*, [4 x i64], [20 x i32], [4 x i64], [4 x i64], { i32, i32, i32, i64 }*, { i32, i32, i32 }*, i32, i32, i32, i32, i32, i32, i64, i32, i32, i32, i32 }":1690,"<%ID> = trunc i64 <%ID> to i32":1691,"<%ID> = icmp sgt i32 <%ID>, <INT>":1692,"store i32 <INT>, i32* <@ID>, align 4":1693,"##25":1694,"##*)":1695,"##, i8* getelementptr inbounds ([27 x i8], [27":1696,"##{ i32, i64 }":1697,"<%ID> = and":1698,"<@ID> = external global [102 x [103 x [103 x double]]], align 16":1699,"store i32 <INT>, i32* getelementptr inbounds ([6 x [6 x i32]], [6 x [6 x i32]]* <@ID>, i64 <INT>, i64 <INT>, i64 <INT>), align 8":1700,"store i32 <INT>, i32* getelementptr inbounds ([8 x [3 x i32]], [8 x [3 x i32]]* <@ID>, i64 <INT>, i64 <INT>, i64 <INT>), align 4":1701,"## x i32]* <%ID>, i32 <INT>, i32 <INT>":1702,"##i64":1703,"##5550":1704,"##1232":1705,"##55501232":1706,"##double <FLOAT>, double":1707,"<%ID> = alloca [5 x double], align 16":1708,"<@ID> = private unnamed_addr constant [6 x i8]  <STRING>, align 1":1709,"<%ID> = call double <@ID>(i32":1710,"##, i32 <INT>, double <FLOAT>)":1711,"##{ i32, i8, [512 x i8], [512 x i8], i32, i32, i32, i32, i32 }":1712,"##{ i64*, i64*, i64 }*, ":1713,"##2 x [5 x [3 x double]]], [2 x [5 x [3 x double]]]":1714,"store i32 <INT>, i32* getelementptr inbounds ([6 x [8 x i32]], [6 x [8":1715,"##2 x i32]], ":1716,"##2 x i32]], [10 x [2 x i32]]":1717,"<%ID> = icmp sge":1718,"<@ID> = external global [102 x [103 x [103 x [5 x double]]]], align 16":1719,"<%ID> = getelementptr inbounds [10 x [2 x i32]], [10 x [2 x i32]]":1720,"##* getelementptr inbounds ([2 x [5 x [3 x double]]], [2 x [5 x [3 x double]]]":1721,"##, label <%ID>, label <%ID>":1722,"##{ i32, i8*, i8*, i8*, i8*, i8*, i8*, i8*, i8*, i8*, i8*, i8*, { opaque*, opaque*, i32 }*, opaque*, i32, i32, i64, i16, i8, [1 x i8], i8*, i64, i8*, i8*, i8*, i8*, i64, i32, [20 x i8] }* <%ID>)":1723,"<%ID> = icmp ult i32 <%ID>, <%ID>":1724,"##5 x i8]* <@ID>, i32 <INT>, i32 <INT>))":1725,"## <double <FLOAT>, double":1726,"##21":1727,"<%ID> = getelementptr inbounds [6 x i32], [6 x i32]* <@ID>, i64 <INT>, i64 <%ID>":1728,"<@ID> = common global ":1729,"store i32 <%ID>, i32* <@ID>, align 4":1730,"##28":1731,"## x i8], [8":1732,"<%ID> = getelementptr inbounds [6 x [4 x i32]], [6 x [4 x i32]]* <@ID>, i64 <INT>, i64 <%ID>":1733,"## <%ID>, i8*":1734,"<%ID> = call i32 <@ID>(":1735,"store { i32, i8*, i8*, i8*, i8*, i8*, i8*, i8*, i8*, i8*, i8*, i8*, { opaque*, opaque*, i32 }*, opaque*, i32, i32, i64, i16, i8, [1 x i8], i8*, i64, i8*, i8*, i8*, i8*, i64, i32, [20 x i8] }* <%ID>, ":1736,"##{ i64*, i64*, i64 }":1737,"## <FLOAT>>":1738,"## x i32] zeroinitializer, align 16":1739,"## <double <FLOAT>, double <FLOAT>>":1740,"store <2 x double> <double <FLOAT>, double <FLOAT>>":1741,"##* getelementptr inbounds ([5 x double], [5 x double]* <@ID>, i64 <INT>, i64 <INT>)":1742,"##i32 <INT>":1743,"##8 x i8], [8":1744,"<%ID> = getelementptr inbounds [102 x [6 x double]], [102 x [6 x double]]* <%ID>, i64 <INT>, i64 <%ID>":1745,"<%ID> = getelementptr inbounds [6 x [5 x [5 x i32]]], [6 x [5 x [5 x i32]]]* <%ID>, i64 <INT>, i64 <%ID>":1746,"## local_":1747,"## local_unnamed_addr":1748,"##{ [512 x i8], i32, i32, i32, i32, i32, i32, i32, i32, i32, i32, i32, i32, i32, i32, i64, i64, i32, i32, i32, i8*, i32*, { { opaque*, opaque*, i32, [1 x i64] }, { opaque*, opaque*, i32, [1 x i64] }*, i32, i32, i32, i32, i32, i32, i32, i32, i32, i32, i32*, { opaque*, opaque*, i32, [1 x i64] }**, i8* }*, i32, { i32, i64, i32, i32 }*, [512 x i8], [512 x i8], [512 x i8], [512 x i8], [512 x i8], [512 x i8], [512 x i8], opaque*, opaque*, opaque*, opaque*, opaque*, opaque*, opaque*, [4 x i64], [20 x i32], [4 x i64], [4 x i64], { i32, i32, i32, i64 }*, { i32, i32, i32 }*, i32, i32, i32, i32, i32, i32, i64, i32, i32, i32, i32 }* <%ID>, ":1749,"##{ i32, i32, i32, i64, i32, i8*, i8 }*, ":1750,"##* <%ID>, i64 <INT>, i64 <INT>, i64 <INT>, i64 <INT>, i64 <INT>":1751,"##{ i32, i32, i32, i64, i32, i8*, i8 }** <%ID>, align 8":1752,"<@ID> = private unnamed_addr constant [8 x i8]  <STRING>, align 1":1753,"<@ID> = private unnamed_addr constant [39 x i8]  <STRING>, align 1":1754,"<%ID> = call i32 <@ID>(i32":1755,"##2 x [3 x ":1756,"##) <%ID>":1757,"<%ID> = getelementptr inbounds { double, double }, { double, double }* <%ID>, i64 <INT>, i32 <INT>":1758,"<%ID> = load { i64*, i64*, i64 }*, ":1759,"##, i64* <%ID>":1760,"##* nonnull <%ID>)":1761,"<%ID> = call i32 <@ID>({ i32, i8*, i8*, i8*, i8*, i8*, i8*, i8*, i8*, i8*, i8*, i8*, { opaque*, opaque*, i32 }*, opaque*, i32, i32, i64, i16, i8, [1 x i8], i8*, i64, i8*, i8*, i8*, i8*, i64, i32, [20 x i8] }* <%ID>)":1762,"store { i32, i8*, i8*, i8*, i8*, i8*, i8*, i8*, i8*, i8*, i8*, i8*, { opaque*, opaque*, i32 }*, opaque*, i32, i32, i64, i16, i8, [1 x i8], i8*, i64, i8*, i8*, i8*, i8*, i64, i32, [20 x i8] }* <%ID>, { i32, i8*, i8*, i8*, i8*, i8*, i8*, i8*, i8*, i8*, i8*, i8*, { opaque*, opaque*, i32 }*, opaque*, i32, i32, i64, i16, i8, [1 x i8], i8*, i64, i8*, i8*, i8*, i8*, i64, i32, [20 x i8] }** <%ID>, align 8":1763,"##{ [512 x i8], i32, i32, i32, i32, i32, i32, i32, i32, i32, i32, i32, i32, i32, i32, i64, i64, i32, i32, i32, i8*, i32*, { { <LABEL>*, <LABEL>*, i32, [1 x i64] }, { <LABEL>*, <LABEL>*, i32, [1 x i64] }*, i32, i32, i32, i32, i32, i32, i32, i32, i32, i32, i32*, { <LABEL>*, <LABEL>*, i32, [1 x i64] }**, i8* }":1764,"##00 x i8], [4":1765,"<%ID> = getelementptr inbounds [400 x i8], [4":1766,"<%ID> = getelementptr inbounds [400 x i8], [400":1767,"<%ID> = getelementptr inbounds [5 x [5 x double]], [5 x [5 x double]]* <%ID>, i32 <INT>, i32 <INT>":1768,"<%ID> = add nsw":1769,"##{ [512 x i8], i32, i32, i32, i32, i32, i32, i32, i32, i32, i32, i32, i32, i32, i32, i64, i64, i32, i32, i32, i8*, i32*, { { <LABEL>*, <LABEL>*, i32, [1 x i64] }, { <LABEL>*, <LABEL>*, i32, [1 x i64] }*, i32, i32, i32, i32, i32, i32, i32, i32, i32, i32, i32*, { <LABEL>*, <LABEL>*, i32, [1 x i64] }**, i8* }*, i32, { i32, i64, i32, i32 }*, [512 x i8], [512 x i8], [512 x i8], [512 x i8], [512 x i8], [512 x i8], [512 x i8], <LABEL>*, <LABEL>*, <LABEL>*, <LABEL>*, <LABEL>*, <LABEL>*, <LABEL>*, [4 x i64], [20 x i32], [4 x i64], [4 x i64], { i32, i32, i32, i64 }*, { i32, i32, i32 }*, i32, i32, i32, i32, i32, i32, i64, i32, i32, i32, i32 }":1770,"## x i8]* <@ID>, i32 <INT>, i32 <INT>), i8* getelementptr inbounds ([7 x i8], [7":1771,"## <%ID>, double* <%ID>)":1772,"##2 x [3 x [5 x double]]":1773,"##i32 <INT>, i32 <INT>, i32 <INT>":1774,"##77":1775,"define void <@ID>(i32 <%ID>)":1776,"##* [ <%ID>, <%ID> ]":1777,"##double]]* <@ID>, i64 <INT>, i64 <%ID>":1778,"##[13 x double]], [5 x [13 x double]]* <@ID>, i64 <INT>, i64 <%ID>":1779,"<%ID> = getelementptr inbounds [5 x [13 x double]], [5 x [13 x double]]* <@ID>, i64 <INT>, i64 <%ID>":1780,"<%ID> = load { i64*, i64*, i64 }*, { i64*, i64*, i64 }** <%ID>, align 8":1781,"<%ID> = add nuw nsw i64 <%ID>, <INT>":1782,"<%ID> = load <2 x double>, <2 x double>* <%ID>, align 8":1783,"<%ID> = phi double* [ <%ID>, <%ID> ], [ <%ID>, <%ID> ]":1784,"##9 x i8], [3":1785,"##9 x i8], [39":1786,"## x i32]* <@ID>, i32 <INT>, i32 <INT>)":1787,"##[5 x [5 x [5 x double]]]], align 16":1788,"##1 x i8]* <@ID>, i32 <INT>, i32 <INT>))":1789,"## i16":1790,"<%ID> = icmp ne ":1791,"## dereferenceable(16":1792,"## dereferenceable(16) <%ID>":1793,"##47":1794,"## x i32], align 4":1795,"##2 x i8], [":1796,"<%ID> = alloca i8, align 1":1797,"call void <@ID>(i8* nonnull":1798,"<%ID> = getelementptr inbounds [2 x i32], [2 x i32]* <%ID>, i64 <INT>, i64 <%ID>":1799,"## <%ID>, i32 <%ID>":1800,"<%ID> = getelementptr inbounds [3 x double], [3 x double]* <%ID>, i64 <INT>, i64 <%ID>":1801,"<%ID> = call double <@ID>(i32 <INT>)":1802,"##5 x i8], [1":1803,"##* getelementptr inbounds ([102 x [103 x [103 x [5 x double]]]], [102 x [103 x [103 x [5 x double]]]]":1804,"## x double] zeroinitializer, align 16":1805,"<@ID> = private unnamed_addr constant [45 x i8]  <STRING>, align 1":1806,"##{ i32, i8*, i8*, i8*, i8*, i8*, i8*, i8*, i8*, i8*, i8*, i8*, { opaque*, opaque*, i32 }*, opaque*, i32, i32, i64, i16, i8, [1 x i8], i8*, i64, i8*, i8*, i8*, i8*, i64, i32, [20 x i8] }*, align 8":1807,"##** { <%ID>*, <%ID>*, i32 }":1808,"<%ID> = call i64":1809,"store double <%ID>, double* <%ID>, align 16":1810,"##* <%ID>, null":1811,"##, i64 <%ID>, i64 <INT>, i64 <INT>":1812,"##[104 x double]":1813,"<%ID> = getelementptr inbounds [102 x [5 x double]], [102 x [5 x double]]* <@ID>, i64 <INT>, i64 <%ID>, i64 <INT>":1814,"##5 x i8], [4":1815,"##* <%ID>, i64":1816,"<%ID> = call i32 (i8*, ...) <@ID>(i8* getelementptr inbounds ([37 x i8], [37 x i8]* <@ID>, i32 <INT>, i32 <INT>), i8* <%ID>)":1817,"##gt double <%ID>, <%ID>":1818,"##* getelementptr inbounds ([2":1819,"<%ID> = sdiv":1820,"##[3":1821,"store i32 <INT>, i32* ":1822,"<%ID> = sh":1823,"<%ID> = load { i32, i32, i32, i64, i32, i8*, i8 }*, ":1824,"##[104 x [104 x double]":1825,"<%ID> = getelementptr inbounds [6 x double], [6 x double]* <%ID>, i64 <INT>, i64 <INT>":1826,"##, i32* { <%ID>*, <%ID>*, i32 }":1827,"##[5 x i8], [5":1828,"store double <FLOAT>, double* getelementptr inbounds ([5 x [5 x double]], [5 x [5 x double]]* <@ID>, i64 <INT>, i64 <INT>, i64 <INT>)":1829,"<%ID> = shl":1830,"##* <%ID>, i32 <INT>, double <FLOAT>)":1831,"<%ID> = getelementptr inbounds [103 x [5 x double]], [103 x [5 x double]]* <%ID>, i64 <INT>, i64 <INT>":1832,"## ]":1833,"<%ID> = call i32 (i8*, ...) <@ID>(i8* getelementptr inbounds ([37 x i8], [37 x i8]* <@ID>, i32 <INT>, i32 <INT>), i32 <%ID>)":1834,"##[5 x double]], align 16":1835,"##] zeroinitializer, align 16":1836,"<@ID> = private unnamed_addr constant [5 x i8]  <STRING>, align 1":1837,"##[104 x [104 x ":1838,"<%ID> = load { i32, i32, i32, i64, i32, i8*, i8 }*, { i32, i32, i32, i64, i32, i8*, i8 }** <%ID>, align 8":1839,"<%ID> = icmp sle i32 <%ID>, <INT>":1840,"##0000":1841,"## double <%ID>":1842,"<%ID> = getelementptr inbounds [400 x i8], [400 x i8]* <%ID>, i32 <INT>, i32 <INT>":1843,"##{ [512 x i8], i32, i32, i32, i32, i32, i32, i32, i32, i32, i32, i32, i32, i32, i32, i64, i64, i32, i32, i32, i8*, i32*, { { <%ID>*, <%ID>*, i32, [1 x i64] }, { <%ID>*, <%ID>*, i32, [1 x i64] }*, i32, i32, i32, i32, i32, i32, i32, i32, i32, i32, i32*, { <%ID>*, <%ID>*, i32, [1 x i64] }**, i8* }*, i32, { i32, i64, i32, i32 }*, [512 x i8], [512 x i8], [512 x i8], [512 x i8], [512 x i8], [512 x i8], [512 x i8], <%ID>*, <%ID>*, <%ID>*, <%ID>*, <%ID>*, <%ID>*, <%ID>*, [4 x i64], [20 x i32], [4 x i64], [4 x i64], { i32, i32, i32, i64 }*, { i32, i32, i32 }*, i32, i32, i32, i32, i32, i32, i64, i32, i32, i32, i32":1844,"<@ID> = global":1845,"## x i8*]* <%ID>, i64 <INT>, i64 <INT>":1846,"##* <@ID>, i32 <INT>, i32 <INT>), double":1847,"## x i8]* <@ID>, i64 <INT>, i64 <INT>))":1848,"## x i8], align 16":1849,"<%ID> = fcmp ogt double <%ID>, <%ID>":1850,"<@ID> = common global i32 <INT>, align 4":1851,"store i64 <%ID>, i64* <%ID>":1852,"##[5 x [5 x [5 x double]]]], [7 x [5 x ":1853,"##6 x [51":1854,"## x i8]* <@ID>, i32 <INT>, i32 <INT>), i8*":1855,"call void <@ID>(double* <%ID>, i32 <INT>, double <FLOAT>)":1856,"##3 x i32], align 4":1857,"##8 x i32], [2":1858,"##8 x i32], [28":1859,"<%ID> = getelementptr inbounds [28 x i32], [28":1860,"call void <@ID>(i32 <INT>":1861,"##], [104 x [104 x ":1862,"##[104 x [104 x double]], [104 x [104 x ":1863,"<%ID> = getelementptr inbounds [16 x i8], [16 x i8]":1864,"##[1024":1865,"<%ID> = icmp eq i32 <%ID>, <%ID>":1866,"call void <@ID>(i8* nonnull ":1867,"##{ i32, i64 }, ":1868,"##{ double, double }*, ":1869,"<%ID> = bitcast [":1870,"store i32 <INT>, i32* getelementptr inbounds ([6 x [4 x i32]], [6 x [4 x i32]]* <@ID>, i64 <INT>, i64 <INT>, i64 <INT>), align 8":1871,"store i32 <INT>, i32* getelementptr inbounds ([6 x [4 x i32]], [6 x [4 x i32]]* <@ID>, i64 <INT>, i64 <INT>, i64 <INT>), align 16":1872,"##[104 x [104 x double]], [104 x [104 x double]]* <%ID>, i64 <INT>, i64 <%ID>":1873,"## x i8], [34":1874,"<%ID> = getelementptr inbounds [104":1875,"<%ID> = getelementptr inbounds [104 x double], ":1876,"##>, <":1877,"<%ID> = getelementptr inbounds [104 x [104 x double]], [104 x [104 x double]]* <%ID>, i64 <INT>, i64 <%ID>":1878,"##bitcast (double":1879,"## <2":1880,"##[3 x double]], [5 x ":1881,"##[3 x double]], [5 x [3 x double]]":1882,"<%ID> = getelementptr inbounds [5 x [3 x double]], [5 x [3 x double]]":1883,"store i32 <INT>, i32* getelementptr inbounds ([12 x [6 x i32]], [12 x [6 x i32]]* <@ID>, i64 <INT>, i64 <INT>, i64 <INT>), align 4":1884,"##{ double, double }** <%ID>, align 8":1885,"##[104 x double]* <%ID>, i64 <INT>, i64 <%ID>":1886,"<%ID> = getelementptr inbounds [104 x double], [104 x double]* <%ID>, i64 <INT>, i64 <%ID>":1887,"##1 x i8], [1":1888,"##56":1889,"store { opaque*, opaque*, i32, [1 x i64] }* <%ID>, ":1890,"<%ID> = getelementptr [":1891,"##], [16":1892,"##56 x [":1893,"##256 x [51":1894,"##56 x [256 x [51":1895,"ret double <%ID>":1896,"<@ID> = private unnamed_addr constant [4 x i8]  <STRING>, align 1":1897,"##, { <%ID>*, <%ID>*, i32 }":1898,"##{ i32, i32, i32, i64 }** <%ID>, align 8":1899,"##2 x i8], [2 x i8]* <@ID>, i32 <INT>, i32 <INT>))":1900,"<%ID> = phi i64 [ <%ID>, <%ID> ], [":1901,"<%ID> = getelementptr inbounds { i32, i64 }, ":1902,"<%ID> = mul nsw i32 <%ID>, <%ID>":1903,"<%ID> = getelementptr inbounds [5 x [5 x [5 x double]]], [5 x [5 x [5 x double]]]* <%ID>, i64 <INT>, i64 <INT>":1904,"##as":1905,"##alias":1906,"##noalias":1907,"define void <@ID>(i8":1908,"define void <@ID>(double":1909,"<@ID> = private unnamed_addr constant [11 x i8]  <STRING>, align 1":1910,"## i8* <@ID>(i64":1911,"store <2 x double> <double <FLOAT>, double <FLOAT>>, <2 x double>":1912,"##[5 x [5 x double]]], align 16":1913,"##55501232 x double]":1914,"##2 x i8], [1":1915,"<%ID> = getelementptr inbounds [4 x i32], [4 x i32]* <%ID>, i64 <INT>, i64 <INT>":1916,"##[5 x [5 x [5 x double]]]], [7 x [5 x [5 x [5 x double]]]]* <@ID>, i64 <INT>, i64 <%ID>":1917,"<@ID> = private unnamed_addr constant [34":1918,"<@ID> = private unnamed_addr constant [34 x i8]  <STRING>, align 1":1919,"## x i32]], [4 x [2":1920,"<%ID> = getelementptr inbounds [6 x [2 x i32]], [6 x [2 x i32]]* <%ID>, i64 <INT>, i64 <%ID>":1921,"<%ID> = alloca { i32, i8*, i8*, i8*, i8*, i8*, i8*, i8*, i8*, i8*, i8*, i8*, { opaque*, opaque*, i32 }*, opaque*, i32, i32, i64, i16, i8, [1 x i8], i8*, i64, i8*, i8*, i8*, i8*, i64, i32, [20 x i8] }*, align 8":1922,"<%ID> = getelementptr inbounds [7 x [5 x [5 x [5 x double]]]], [7 x [5 x [5 x [5 x double]]]]* <@ID>, i64 <INT>, i64 <%ID>":1923,"## x i8]* <@ID>, i64 <INT>, i64 <INT>), i8* <%ID>)":1924,"## <%ID>, <TYP> 0":1925,"## x double], align 16":1926,"##* null":1927,"<%ID> = fadd double <FLOAT>, <%ID>":1928,"<%ID> = mul i64 <%ID>, <INT>":1929,"store { opaque*, opaque*, i32, [1 x i64] }* <%ID>, { opaque*, opaque*, i32, [1 x i64] }** <%ID>, align 8":1930,"##8 x i8], [2":1931,"##8 x i8], [28":1932,"##3421":1933,"##7728":1934,"##34217728":1935,"<%ID> = getelementptr inbounds [10 x [2 x i32]], [10 x [2 x i32]]* <%ID>, i64 <INT>, i64 <%ID>":1936,"## <%ID>, <TYP> 1":1937,"<%ID> = call i32 (i8*, ...) <@ID>(i8* getelementptr inbounds ([39 x i8], [39":1938,"##{ i32, i64, i32, i32 }** <%ID>, align 8":1939,"## x double], [1":1940,"##], [7500":1941,"##2 x double], [7500":1942,"##75002 x double], [7500":1943,"store i32 <INT>, i32* { <%ID>*, <%ID>*, i32 }":1944,"<%ID> = call i32 (i8*, ...) <@ID>(i8* getelementptr inbounds ([45 x i8], [4":1945,"<@ID> = internal global [":1946,"<@ID> = private unnamed_addr constant [2 x i8]  <STRING>, align 1":1947,"##ast":1948,"##cc":1949,"##astcc":1950,"## i32 <INT> to i64":1951,"##[515 x double], ":1952,"##[515 x double], [515":1953,"##* [ <%ID>, <%ID> ], [":1954,"## i8* <@ID>(i8":1955,"<%ID> = load { i32, i32, i32, i64 }*, ":1956,"<@ID> = private unnamed_addr constant [27 x i8]  <STRING>, align 1":1957,"##noalias i8* <@ID>(i64":1958,"##[5 x [5 x double]]* <%ID>, [5 x [5 x double]]":1959,"##true":1960,"<%ID> = bitcast i64":1961,"call void <@ID>(i32* getelementptr inbounds ([":1962,"<%ID> = getelementptr inbounds [515 x double], [515":1963,"##* <@ID>(i8":1964,"## }** <%ID>":1965,"<%ID> = icmp u":1966,"<%ID> = load { i32, i32, i32, i64 }*, { i32, i32, i32, i64 }** <%ID>, align 8":1967,"define void <@ID>(":1968,"<%ID> = alloca [5 x ":1969,"<%ID> = icmp sge i32 <%ID>, <INT>":1970,"<@ID> = internal global i32 <INT>, align 4":1971,"##{ i32, i8, [512 x i8], [512 x i8], i32, i32, i32, i32, i32 }, ":1972,"<%ID> = bitcast i32* <%ID> to":1973,"##30":1974,"##4 x double]":1975,"##{ i32, i32, i32, i64 }* <%ID>, i32 <INT>, i32 <INT>":1976,"<%ID> = getelementptr inbounds { i32, i32, i32, i64 }, { i32, i32, i32, i64 }* <%ID>, i32 <INT>, i32 <INT>":1977,"<%ID> = call i8* <@ID>(i8":1978,"<%ID> = phi double [ <FLOAT>":1979,"##{ i32, i32, i32, i64 }* <%ID>, i64 <%ID>":1980,"<%ID> = getelementptr inbounds { i32, i32, i32, i64 }, { i32, i32, i32, i64 }* <%ID>, i64 <%ID>":1981,"## <%ID>, i32 <%ID>, i32 <%ID>, i32 <%ID>)":1982,"<%ID> = getelementptr inbounds [515 x double], [515 x double]* <%ID>, i64 <INT>, i64 <%ID>":1983,"<%ID> = load { i32, i64, i32, i32 }*, ":1984,"<%ID> = getelementptr inbounds { i32, i8, [512 x i8], [512 x i8], i32, i32, i32, i32, i32 }, ":1985,"<%ID> = alloca [1":1986,"<%ID> = getelementptr inbounds [103 x double], [103 x double]* <@ID>, i64 <INT>, i64 <%ID>":1987,"##{ i32, i8*, i8*, i8*, i8*, i8*, i8*, i8*, i8*, i8*, i8*, i8*, { <%ID>*, <%ID>*, i32 }*, <%ID>*, i32, i32, i64, i16, i8, [1 x i8], i8*, i64, i8*, i8*, i8*, i8*, i64, i32, [20 x i8] }*":1988,"##8800 x [5 x [5 x [5 x double]]]], [8800 x [5 x [5 x [5 x double]]]]":1989,"<%ID> = phi i64 [ <%ID>, <%ID> ]":1990,"<%ID> = call i64 <@ID>(i8":1991,"<@ID> = private unnamed_addr constant [44 x i8]  <STRING>, align 1":1992,"<%ID> = sext i32 <INT> to i64":1993,"## <%ID> to double":1994,"##8800 x i32], align 16":1995,"<%ID> = getelementptr inbounds { i32, i64, i32, i32 }, { i32, i64, i32, i32 }":1996,"##3 x { double, double }]]":1997,"tail call void <@ID>(i32":1998,"<%ID> = getelementptr [102 x [103 x [103 x [5 x double]]]], [102 x [103 x [103 x [5 x double]]]]":1999,"<LABEL>: ; preds = { [512 x i8], i32, i32, i32, i32, i32, i32, i32, i32, i32, i32, i32, i32, i32, i32, i64, i64, i32, i32, i32, i8*, i32*, { { <LABEL>*, <LABEL>*, i32, [1 x i64] }, { <LABEL>*, <LABEL>*, i32, [1 x i64] }*, i32, i32, i32, i32, i32, i32, i32, i32, i32, i32, i32*, { <LABEL>*, <LABEL>*, i32, [1 x i64] }**, i8* }*, i32, { i32, i64, i32, i32 }*, [512 x i8], [512 x i8], [512 x i8], [512 x i8], [512 x i8], [512 x i8], [512 x i8], <LABEL>*, <LABEL>*, <LABEL>*, <LABEL>*, <LABEL>*, <LABEL>*, <LABEL>*, [4 x i64], [20 x i32], [4 x i64], [4 x i64], { i32, i32, i32, i64 }*, { i32, i32, i32 }*, i32, i32, i32, i32, i32, i32, i64, i32, i32, i32, i32 }":2000,"<%ID> = getelementptr inbounds { i32, i64, i32, i32 }, { i32, i64, i32, i32 }* <%ID>, i64 <%ID>":2001,"<%ID> = bitcast double* <%ID> to [102 x [103 x [103 x [5 x double]]]]":2002,"<%ID> = bitcast double* <%ID> to [102 x [103 x [103 x [5 x double]]]]*":2003,"##  ":2004,"<%ID> = load { i32, i64, i32, i32 }*, { i32, i64, i32, i32 }** <%ID>, align 8":2005,"##* <%ID>, i8* getelementptr inbounds ([3 x i8], [3":2006,"## <%ID>, double <FLOAT>)":2007,"<@ID> = common local_unnamed_addr global double <FLOAT>, align 8":2008,"##, <LABEL>, <LABEL>, <LABEL>, <LABEL>":2009,"<%ID> = phi i64 [ <%ID>, <%ID> ], [ <%ID>, <%ID> ]":2010,"##{ i32, i8*, i8*, i8*, i8*, i8*, i8*, i8*, i8*, i8*, i8*, i8*, { opaque*, opaque*, i32 }*, opaque*, i32, i32, i64, i16, i8, [1 x i8], i8*, i64, i8*, i8*, i8*, i8*, i64, i32, [20 x i8] }* <%ID>, null":2011,"<%ID> = mul i32 <INT>, <%ID>":2012,"<%ID> = call i32 (i8*, ...) <@ID>(i8* getelementptr inbounds ([25 x i8], [25":2013,"<%ID> = getelementptr inbounds [512 x i8], [512 x i8]":2014,"<%ID> = bitcast double* <%ID> to ":2015,"##* <@ID> to i8*)":2016,"<%ID> = getelementptr inbounds [512 x i8], [512 x i8]* <%ID>, i32 <INT>, i32 <INT>":2017,"<%ID> = call i32 ({ i32, i8*, i8*, i8*, i8*, i8*, i8*, i8*, i8*, i8*, i8*, i8*, { opaque*, opaque*, i32 }*, opaque*, i32, i32, i64, i16, i8, [1 x i8], i8*, i64, i8*, i8*, i8*, i8*, i64, i32, [20 x i8] }*, i8*, ...) <@ID>({ i32, i8*, i8*, i8*, i8*, i8*, i8*, i8*, i8*, i8*, i8*, i8*, { opaque*, opaque*, i32 }*, opaque*, i32, i32, i64, i16, i8, [1 x i8], i8*, i64, i8*, i8*, i8*, i8*, i64, i32, [20 x i8] }* <%ID>, i8* getelementptr inbounds ([1":2018,"store [5 x double]* <%ID>, ":2019,"##4 x i8], [44":2020,"<@ID> = private unnamed_addr constant [42 x i8]  <STRING>, align 1":2021,"<%ID> = add nsw i64 <%ID>, <INT>":2022,"<%ID> = getelementptr inbounds [103 x [103 x [5 x double]]], [103 x [103 x [5 x double]]]* <%ID>, i64 <INT>, i64 <INT>":2023,"<%ID> = fadd double <%ID>, <FLOAT>":2024,"##8 x i8], [3":2025,"##8 x i8], [38":2026,"##]* <@ID>, i64 <INT>, i64 <INT>, i64 <INT>, i64 <INT>)":2027,"##, <INT>":2028,"## x double]]":2029,"## void <@ID>(i8":2030,"##3 x [2 x [4 x i32]]":2031,"<%ID> = icmp ne i64 <%ID>, <INT>":2032,"##* <@ID>, i32 <INT>, i32 <INT>, i32 <INT>, i32 <INT>, i32 <INT>)":2033,"##{ i32, i64, i32, i32 }* <%ID>, i32 <INT>, i32 <INT>":2034,"<%ID> = getelementptr inbounds { i32, i64, i32, i32 }, { i32, i64, i32, i32 }* <%ID>, i32 <INT>, i32 <INT>":2035,"##sh":2036,"##9 x i8], [":2037,"##9 x i8], [9":2038,"##[20 x i8], [20":2039,"##[5 x [5 x [5 x double]]]]":2040,"br i1 true":2041,"<%ID> = call noalias i8* <@ID>(i64":2042,"##2 x i8], [4":2043,"<%ID> = getelementptr inbounds [103 x [3 x [5 x [5 x double]]]], [103 x [3 x [5 x [5 x double]]]]* <@ID>, i64 <INT>, i64 <%ID>, i64 <INT>, i64 <INT>, i64 <INT>":2044,"<@ID> = private unnamed_addr constant [12 x i8]  <STRING>, align 1":2045,"##, i8* nonnull <%ID>)":2046,"##00000":2047,"##], [3 x [2 x [4 x i32]]":2048,"##* getelementptr inbounds ([8800 x [5 x [5 x [5 x double]]]], [8800 x [5 x [5 x [5 x double]]]]":2049,"<%ID> = bitcast [5 x [5 x double]]":2050,"##{ i32, i8, [512 x i8], [512 x i8], i32, i32, i32, i32, i32 }* <%ID>, i32 <INT>, i32 <INT>":2051,"<%ID> = getelementptr inbounds { i32, i8, [512 x i8], [512 x i8], i32, i32, i32, i32, i32 }, { i32, i8, [512 x i8], [512 x i8], i32, i32, i32, i32, i32 }* <%ID>, i32 <INT>, i32 <INT>":2052,"<LABEL>: ; preds = { i32, i32, i32, i32, i32, i32, i32, i32, i32, i64, i8* }":2053,"##56 x [256 x [513 x { double, double }]]":2054,"<@ID> = external global [8800 x i32], align 16":2055,"<%ID> = getelementptr inbounds [102 x [103 x [103 x double]]], [102 x [103 x [103 x double]]]* <@ID>, i64 <INT>, i64 <%ID>, i64 <%ID>, i64 <%ID>":2056,"store { [512 x i8], i32, i32, i32, i32, i32, i32, i32, i32, i32, i32, i32, i32, i32, i32, i64, i64, i32, i32, i32, i8*, i32*, { { opaque*, opaque*, i32, [1 x i64] }, { opaque*, opaque*, i32, [1 x i64] }*, i32, i32, i32, i32, i32, i32, i32, i32, i32, i32, i32*, { opaque*, opaque*, i32, [1 x i64] }**, i8* }*, i32, { i32, i64, i32, i32 }*, [512 x i8], [512 x i8], [512 x i8], [512 x i8], [512 x i8], [512 x i8], [512 x i8], opaque*, opaque*, opaque*, opaque*, opaque*, opaque*, opaque*, [4 x i64], [20 x i32], [4 x i64], [4 x i64], { i32, i32, i32, i64 }*, { i32, i32, i32 }*, i32, i32, i32, i32, i32, i32, i64, i32, i32, i32, i32 }* <%ID>, ":2057,"<%ID> = icmp slt i64 <%ID>, <%ID>":2058,"br i1 true, label <%ID>, label <%ID>":2059,"<%ID> = phi [":2060,"##, i32 <INT>>, <":2061,"## <i32 <INT>, i32 <INT>, i32 <INT>":2062,"<%ID> = call i32 <@ID>(i8* nonnull dereferenceable(1) getelementptr inbounds (":2063,"## <%ID>, i32 <%ID>, i32 <%ID>, i32":2064,"<%ID> = call i32 (i8*, ...) <@ID>(i8* getelementptr inbounds ([5":2065,"## <%ID>, i32 <%ID>, i32 <%ID>, i32 <%ID>, i32 <%ID>, double <%ID>, double":2066,"##[103 x [5 x [5 x double]]]]":2067,"##, i8 signext <%ID>, i32 <%ID>, i32 <%ID>, i32 <%ID>, i32 <%ID>, double <%ID>, double":2068,"##{ i32, i8*, i8*, i8*, i8*, i8*, i8*, i8*, i8*, i8*, i8*, i8*, { opaque*, opaque*, i32 }*, opaque*, i32, i32, i64, i16, i8, [1 x i8], i8*, i64, i8*, i8*, i8*, i8*, i64, i32, [20 x i8] }* <@ID>(i8":2069,"##i8*":2070,"##, i8*, ...) <@ID>(i8":2071,"##i8*, i8*, ...) <@ID>(i8":2072,"##2 x i8], [12 x i8]* <@ID>, i32 <INT>, i32 <INT>)":2073,"## x [2 x i32]]":2074,"<%ID> = phi i8":2075,"##{ i64, i64 }*, ":2076,"<%ID> = call i32 (i8*, ...) <@ID>(i8* getelementptr inbounds ([45 x i8], [45 x i8]* <@ID>, i32 <INT>, i32 <INT>))":2077,"## x i32]]* <%ID>, i64 <INT>, i64 <%ID>":2078,"<%ID> = icmp ult i32 <%ID>, <INT>":2079,"##4700000":2080,"<%ID> = getelementptr inbounds [5 x double], [5 x double]* <@ID>, i64 <INT>, i64 <%ID>":2081,"##7 x i8] c\"":2082,"define i32 <@ID>(":2083,"##5 x i8], [15":2084,"<%ID> = getelementptr [102 x [103 x [103 x [5 x double]]]], [102 x [103 x [103 x [5 x double]]]]* <%ID>, i64 <INT>, i64 <INT>, i64 <INT>, i64 <INT>, i64 <INT>":2085,"<%ID> = call i32 (i8*, i8*, ...) <@ID>(i8":2086,"<@ID> = private unnamed_addr constant [28 x i8]  <STRING>, align 1":2087,"<%ID> = load double*, double":2088,"<%ID> = getelementptr inbounds { i64, i64 }, { i64, i64 }":2089,"call void <@ID>(double <%ID>, double <%ID>, double":2090,"<@ID> = private unnamed_addr constant [38 x i8]  <STRING>, align 1":2091,"store <4 x i32>":2092,"##* nonnull <%ID>":2093,"##{ i64, i64 }** <%ID>, align 8":2094,"<%ID> = getelementptr inbounds [16 x i8], [16 x i8]* <%ID>, i64 <INT>, i64 <%ID>":2095,"##, { i32, i8*, i8*, i8*, i8*, i8*, i8*, i8*, i8*, i8*, i8*, i8*, { opaque*, opaque*, i32 }*, opaque*, i32, i32, i64, i16, i8, [1 x i8], i8*, i64, i8*, i8*, i8*, i8*, i64, i32, [20 x i8] }* <%ID>)":2096,"## i64 <INT>":2097,"##2 x double], [2 x ":2098,"##31":2099,"<%ID> = getelementptr inbounds [2 x double], [2 x ":2100,"## x i8]* <@ID>, i32 <INT>, i32 <INT>), i8** <%ID>, align 16":2101,"<%ID> = phi double [ <FLOAT>, <%ID> ], [ <%ID>, <%ID> ]":2102,"##07":2103,"<@ID> = private unnamed_addr constant [24 x i8]  <STRING>, align 1":2104,"##, i32 <INT>>, <4 x i32>":2105,"## <i32 <INT>, i32 <INT>, i32 <INT>, i32 <INT>>, <4 x i32>":2106,"store <4 x i32> <i32 <INT>, i32 <INT>, i32 <INT>, i32 <INT>>, <4 x i32>":2107,"##{ i32, i32 }":2108,"<%ID> = alloca [5 x [5 x double]]":2109,"<%ID> = getelementptr inbounds [8800 x [8 x i32]], [8800 x [8 x i32]]* <@ID>, i64 <INT>, i64 <%ID>, i64 <INT>":2110,"##i32":2111,"<%ID> = call i32 (i8*, ...) <@ID>(i8* nonnull dereferenceable(1) getelementptr inbounds ([2":2112,"##, i32 <%ID>":2113,"<@ID> = private unnamed_addr constant [40 x i8]  <STRING>, align 1":2114,"##0 x i8], [4":2115,"<@ID> = private unnamed_addr constant [27 x i8] c\"":2116,"##0 x i8], [40":2117,"##{ [512 x i8], i32, i32, i32, i32, i32, i32, i32, i32, i32, i32, i32, i32, i32, i32, i64, i64, i32, i32, i32, i8*, i32*, <%ID>":2118,"##{ [512 x i8], i32, i32, i32, i32, i32, i32, i32, i32, i32, i32, i32, i32, i32, i32, i64, i64, i32, i32, i32, i8*, i32*, <%ID>*, i32, { i32, i64, i32, i32 }*, [512 x i8], [512 x i8], [512 x i8], [512 x i8], [512 x i8], [512 x i8], [512 x i8], <%ID>*, <%ID>*, <%ID>*, <%ID>*, <%ID>*, <%ID>*, <%ID>":2119,"## [102 x [103 x [103 x double]]":2120,"<%ID> = getelementptr inbounds [6 x [2 x [2 x [5 x [5 x i32]]]]], [6 x [2 x [2 x [5 x [5 x i32]]]]]* <%ID>, i64 <INT>, i64 <INT>":2121,"##* getelementptr inbounds ([103 x ":2122,"store i32 <%ID>, i32* { <%ID>*, <%ID>*, i32 }":2123,"## undef, double":2124,"<@ID> = internal global ":2125,"##08":2126,"##1 x [3":2127,"<%ID> = bitcast i8*":2128,"<%ID> = sub i32 <%ID>, <INT>":2129,"## i32*":2130,"## <%ID>, <2 x double>":2131,"<@ID> = external global [3 x i32], align 4":2132,"store <2 x double> <%ID>, <2 x double>":2133,"##rem":2134,"define void <@ID>(i8* <%ID>":2135,"##], [12 x i8*":2136,"##2 x i8*], [12 x i8*":2137,"<%ID> = call i32 (i8*, ...) <@ID>(i8* nonnull dereferenceable(1) getelementptr inbounds ([3":2138,"<@ID> = external local_unnamed_addr global i32, align 4":2139,"<%ID> = getelementptr inbounds [26 x { double, double }], [26 x { double, double }]* <%ID>, i64 <INT>, i64 <INT>, i32 <INT>":2140,"<%ID> = getelementptr inbounds [12 x i8*], [12 x i8*":2141,"call void <@ID>(i8* <%ID>)":2142,"<LABEL>: ; preds = { { <LABEL>*, <LABEL>*, i32, [1 x i64] }, { <LABEL>*, <LABEL>*, i32, [1 x i64] }*, i32, i32, i32, i32, i32, i32, i32, i32, i32, i32, i32*, { <LABEL>*, <LABEL>*, i32, [1 x i64] }**, i8* }":2143,"store i8* getelementptr inbounds (":2144,"##[103 x [5 x double]]** <%ID>":2145,"##, i8 signext <%ID>)":2146,"## to <4 x i32>":2147,"## to <4 x i32>*)":2148,"<@ID> = external global [5 x ":2149,"## <@ID>({ i32, i8*, i8*, i8*, i8*, i8*, i8*, i8*, i8*, i8*, i8*, i8*, { <%ID>*, <%ID>*, i32 }*, <%ID>*, i32, i32, i64, i16, i8, [1 x i8], i8*, i64, i8*, i8*, i8*, i8*, i64, i32, [20 x i8] }":2150,"<%ID> = insertelement <2 x double> <%ID>, double":2151,"##], [4 x [10 x [2 x i32]]":2152,"## x [10 x [2 x i32]]], [4 x [10 x [2 x i32]]":2153,"store <4 x i32> <i32 <INT>, i32 <INT>, i32 <INT>, i32 <INT>>, <4 x i32>* bitcast (":2154,"<%ID> = insertelement <2 x double> undef, double":2155,"##, i8* nonnull ":2156,"<%ID> = insertelement <2 x double> undef, double <%ID>, <TYP> 0":2157,"##3 x [2 x [4 x i32]]], [3 x [2 x [4 x i32]]":2158,"##3 x [2 x [4 x i32]]], [3 x [2 x [4 x i32]]]* <@ID>, i64 <INT>, i64 <INT>, i64 <INT>, i64 <INT>)":2159,"## x i32]* <%ID>, i64 <%ID>":2160,"##* getelementptr inbounds ([8800 x [5 x [5 x [5 x double]]]], [8800 x [5 x [5 x [5 x double]]]]* <@ID>, i32 <INT>, i32 <INT>, i32 <INT>, i32 <INT>, i32 <INT>)":2161,"##{ i32, i8, [512 x i8], [512 x i8], i32, i32, i32, i32, i32 }** <%ID>, align 8":2162,"##* <@ID>, i32 <INT>, i32 <INT>, i32 <INT>, i32 <INT>)":2163,"##8 x [2 x i32]]":2164,"##[155501232 x double]":2165,"##4 x i8], [2":2166,"##4 x i8], [24":2167,"##36":2168,"##, i32 { <%ID>*, <%ID>*, i32 }":2169,"##2 x double], [1":2170,"##, i64 <%ID>)":2171,"##, i64* ":2172,"##[155501232 x double]* <@ID> to i8*)":2173,"<%ID> = sdiv i32 <%ID>, <INT>":2174,"##{ i32, i8, [512 x i8], [512 x i8], i32, i32, i32, i32, i32 }*, ":2175,"<%ID> = call { i32, i8*, i8*, i8*, i8*, i8*, i8*, i8*, i8*, i8*, i8*, i8*, { opaque*, opaque*, i32 }*, opaque*, i32, i32, i64, i16, i8, [1 x i8], i8*, i64, i8*, i8*, i8*, i8*, i64, i32, [20 x i8] }* <@ID>(i8":2176,"## x [10 x [2 x i32]]], [4 x [10 x [2 x i32]]]* <%ID>, i64 <INT>, i64 <INT>":2177,"<%ID> = getelementptr inbounds [102 x [103 x [5 x [5 x double]]]], [102 x [103 x [5 x [5 x double]]]]* <@ID>, i64 <INT>, i64 <%ID>, i64 <%ID>, i64 <INT>, i64 <INT>":2178,"call void <@ID>(i32 <%ID>)":2179,"##[5 x i32]":2180,"##{ [512 x i8], i32, i32, i32, i32, i32, i32, i32, i32, i32, i32, i32, i32, i32, i32, i64, i64, i32, i32, i32, i8*, i32*, <%ID>*, i32, { i32, i64, i32, i32 }*, [512 x i8], [512 x i8], [512 x i8], [512 x i8], [512 x i8], [512 x i8], [512 x i8], <%ID>*, <%ID>*, <%ID>*, <%ID>*, <%ID>*, <%ID>*, <%ID>*, [4 x i64], [20 x i32], [4 x i64], [4 x i64], { i32, i32, i32, i64 }*, { i32, i32, i32 }*, i32, i32, i32, i32, i32, i32, i64, i32, i32, i32, i32 }":2181,"<%ID> = getelementptr inbounds [3 x double], [3 x double]* <%ID>, i64 <INT>, i64 <INT>":2182,"<%ID> = load { double, double }*, ":2183,"##* <%ID>, double* <%ID>)":2184,"<@ID> = external local_unnamed_addr global [":2185,"##* <@ID>, i32 <INT>, i32 <INT>, i32 <INT>)":2186,"## fastcc":2187,"<@ID> = private unnamed_addr constant [9 x i8]  <STRING>, align 1":2188,"<%ID> = getelementptr inbounds i32, i32* <%ID>, i64 <INT>":2189,"##* <%ID>, i64 <INT>, i64 <INT>, i64 <INT>":2190,"store i32 <INT>, i32* getelementptr inbounds ([3 x [2 x [4 x i32]]], [3 x [2 x [4 x i32]]]* <@ID>, i64 <INT>, i64 <INT>, i64 <INT>, i64 <INT>)":2191,"store i32 <INT>, i32* getelementptr inbounds ([6 x [6 x i32]], [6 x [6 x i32]]* <@ID>, i64 <INT>, i64 <INT>, i64 <INT>), align 16":2192,"store double <FLOAT>, double* getelementptr inbounds ([5 x [5 x double]], [5 x [5 x double]]* <@ID>, i64 <INT>, i64 <INT>, i64 <INT>), align 8":2193,"<@ID> = external global [6 x [":2194,"## i32 <INT> to i32":2195,"##r i32 <%ID>, <INT>":2196,"store <2 x double> <%ID>, <2 x double>* <%ID>, align 8":2197,"##[102 x [103 x [103 x [5 x double]]]]** <%ID>":2198,"##* getelementptr inbounds ([102 x ":2199,"##64 x double] zeroinitializer, align 16":2200,"##* getelementptr inbounds ([334600":2201,"## x double], [334600 x double]":2202,"define i32 <@ID>(i32":2203,"## <%ID>, i8* <%ID>, i32 <%ID>":2204,"##, i8 signext <%ID>, i32 <%ID>, i32 <%ID>, i32 <%ID>, i32 <%ID>, double <%ID>, double <%ID>, i8* <%ID>, i32 <%ID>":2205,"define void <@ID>(i8* <%ID>, i8 signext <%ID>, i32 <%ID>, i32 <%ID>, i32 <%ID>, i32 <%ID>, double <%ID>, double <%ID>, i8* <%ID>, i32 <%ID>":2206,"##* getelementptr inbounds ([334600 x double], [334600 x double]":2207,"define void <@ID>(i8* <%ID>, i8 signext <%ID>, i32 <%ID>, i32 <%ID>, i32 <%ID>, i32 <%ID>, double <%ID>, double <%ID>, i8* <%ID>, i32 <%ID>, i8* <%ID>, i8* <%ID>, i8* <%ID>, i8* <%ID>":2208,"<@ID> = private unnamed_addr constant [13 x i8]  <STRING>, align 1":2209,"store i32 <INT>, i32* getelementptr inbounds ([12 x [6 x i32]], [12 x [6 x i32]]* <@ID>, i64 <INT>, i64 <INT>, i64 <INT>), align 8":2210,"##2 x [2 x i32]]* <%ID>, i64 <INT>, i64 <%ID>":2211,"##4 x i32]], [":2212,"##2 x [4 x i32]], [":2213,"##2 x [4 x i32]], [2 x [4 x i32]]":2214,"store i32 <INT>, i32* getelementptr inbounds ([6 x [8 x i32]], [6 x [8 x i32]]* <@ID>, i64 <INT>, i64 <INT>, i64 <INT>), align 4":2215,"##, i8* getelementptr inbounds ([27 x i8], [27 x i8]* <@ID>, i32 <INT>, i32 <INT>), i32 <%ID>)":2216,"<%ID> = load [":2217,"<%ID> = getelementptr inbounds i8, i8* <%ID>, i64 <%ID>":2218,"##* <%ID> to ":2219,"##, i8*, ...) <@ID>({ i32, i8*, i8*, i8*, i8*, i8*, i8*, i8*, i8*, i8*, i8*, i8*, { <%ID>*, <%ID>*, i32 }*, <%ID>*, i32, i32, i64, i16, i8, [1 x i8], i8*, i64, i8*, i8*, i8*, i8*, i64, i32, [20 x i8] }":2220,"##{ i32, i8*, i8*, i8*, i8*, i8*, i8*, i8*, i8*, i8*, i8*, i8*, { <%ID>*, <%ID>*, i32 }*, <%ID>*, i32, i32, i64, i16, i8, [1 x i8], i8*, i64, i8*, i8*, i8*, i8*, i64, i32, [20 x i8] }*, i8*, ...) <@ID>({ i32, i8*, i8*, i8*, i8*, i8*, i8*, i8*, i8*, i8*, i8*, i8*, { <%ID>*, <%ID>*, i32 }*, <%ID>*, i32, i32, i64, i16, i8, [1 x i8], i8*, i64, i8*, i8*, i8*, i8*, i64, i32, [20 x i8] }":2221,"<%ID> = load { double, double }*, { double, double }** <%ID>, align 8":2222,"##4 x i8], [34":2223,"<%ID> = insertelement <2 x double> <%ID>, double <%ID>, <TYP> 1":2224,"<%ID> = getelementptr inbounds [4 x [10 x [2 x i32]]], [4 x [10 x [2 x i32]]]* <%ID>, i64 <INT>, i64 <INT>":2225,"store i8* getelementptr inbounds ([5 x i8], [5":2226,"##3 x i8], [1":2227,"##3 x i8], [13":2228,"##7 x [5 x [5 x double]]]":2229,"<%ID> = getelementptr inbounds [2 x [4 x i32]], [2 x [4 x i32]]":2230,"##{ i32, i32, i32 }, ":2231,"<%ID> = alloca [5 x [5 x double]]*, align 8":2232,"<%ID> = fcmp ole":2233,"##* bitcast (double":2234,"store [5 x [5 x double]]* <%ID>, ":2235,"store [5 x [5 x double]]* <%ID>, [5 x [5 x double]]** <%ID>, align 8":2236,"##, label { [512 x i8], i32, i32, i32, i32, i32, i32, i32, i32, i32, i32, i32, i32, i32, i32, i64, i64, i32, i32, i32, i8*, i32*, { { <%ID>*, <%ID>*, i32, [1 x i64] }, { <%ID>*, <%ID>*, i32, [1 x i64] }*, i32, i32, i32, i32, i32, i32, i32, i32, i32, i32, i32*, { <%ID>*, <%ID>*, i32, [1 x i64] }**, i8* }*, i32, { i32, i64, i32, i32 }*, [512 x i8], [512 x i8], [512 x i8], [512 x i8], [512 x i8], [512 x i8], [512 x i8], <%ID>*, <%ID>*, <%ID>*, <%ID>*, <%ID>*, <%ID>*, <%ID>*, [4 x i64], [20 x i32], [4 x i64], [4 x i64], { i32, i32, i32, i64 }*, { i32, i32, i32 }*, i32, i32, i32, i32, i32, i32, i64, i32, i32, i32, i32 }":2237,"##2 x i8], [42 x i8]* <@ID>, i32 <INT>, i32 <INT>)":2238,"##49":2239,"## x i32]], [11 x [3":2240,"## x double]], align 16":2241,"define double":2242,"<%ID> = getelementptr inbounds [2 x i32], [2 x i32]* <%ID>, i64 <%ID>":2243,"##, i32 <%ID>, i32 <INT>)":2244,"##[5 x [5 x [5 x double]]]]* <%ID>, i64 <INT>, i64 <INT>":2245,"## x i8], [36":2246,"##* <%ID>, i32 <%ID>, i32 <%ID>, i32 <%ID>)":2247,"<%ID> = getelementptr i8, i8* ":2248,"store i8* getelementptr inbounds ([7 x i8], [7":2249,"<%ID> = u":2250,"##7 x [8":2251,"##1 x i8], [11":2252,"<%ID> = phi [102 x [103 x [103 x [5 x double]]]]":2253,"<%ID> = getelementptr inbounds [103 x [103 x [5 x double]]], [103 x [103 x [5 x double]]]* getelementptr inbounds ([102 x [103 x [103 x [5 x double]]]], [102 x [103 x [103 x [5 x double]]]]":2254,"<%ID> = getelementptr inbounds [103 x [103 x [5 x double]]], [103 x [103 x [5 x double]]]* getelementptr inbounds ([102 x [103 x [103 x [5 x double]]]], [102 x [103 x [103 x [5 x double]]]]* <@ID>, i64 <INT>, i64 <INT>), i64 <INT>, i64 <%ID>":2255,"define internal void <@ID>(i32":2256,"##, <%ID> ], [ ":2257,"<%ID> = load { i64, i64 }*, ":2258,"## x [3 x i32]], [11 x [3":2259,"<%ID> = getelementptr inbounds [11 x [3 x i32]], [11 x [3":2260,"##2, align 4":2261,"<%ID> = add i64 <%ID>, <%ID>":2262,"<%ID> = phi i64 [ <%ID>, <%ID> ], [ 0, <%ID> ]":2263,"##* <%ID>, i32* <%ID>)":2264,"<%ID> = icmp eq i8":2265,"store i64* <%ID>, i64":2266,"## alloca":2267,"##\" = ":2268,"<%ID> alloca":2269,"## poi":2270,"##bitcast i32 <INT> to i32":2271,"##\" = bitcast i32 <INT> to i32":2272,"<%ID> alloca poi":2273,"<%ID> alloca point":2274,"<%ID> = mul i32 <%ID>, <%ID>":2275,"<%ID> = icmp ne { i32, i8*, i8*, i8*, i8*, i8*, i8*, i8*, i8*, i8*, i8*, i8*, { opaque*, opaque*, i32 }*, opaque*, i32, i32, i64, i16, i8, [1 x i8], i8*, i64, i8*, i8*, i8*, i8*, i64, i32, [20 x i8] }* <%ID>, null":2276,"<%ID> = phi double [ <%ID>, <%ID> ], [":2277,"store { [512 x i8], i32, i32, i32, i32, i32, i32, i32, i32, i32, i32, i32, i32, i32, i32, i64, i64, i32, i32, i32, i8*, i32*, { { opaque*, opaque*, i32, [1 x i64] }, { opaque*, opaque*, i32, [1 x i64] }*, i32, i32, i32, i32, i32, i32, i32, i32, i32, i32, i32*, { opaque*, opaque*, i32, [1 x i64] }**, i8* }*, i32, { i32, i64, i32, i32 }*, [512 x i8], [512 x i8], [512 x i8], [512 x i8], [512 x i8], [512 x i8], [512 x i8], opaque*, opaque*, opaque*, opaque*, opaque*, opaque*, opaque*, [4 x i64], [20 x i32], [4 x i64], [4 x i64], { i32, i32, i32, i64 }*, { i32, i32, i32 }*, i32, i32, i32, i32, i32, i32, i64, i32, i32, i32, i32 }* <%ID>, { [512 x i8], i32, i32, i32, i32, i32, i32, i32, i32, i32, i32, i32, i32, i32, i32, i64, i64, i32, i32, i32, i8*, i32*, { { opaque*, opaque*, i32, [1 x i64] }, { opaque*, opaque*, i32, [1 x i64] }*, i32, i32, i32, i32, i32, i32, i32, i32, i32, i32, i32*, { opaque*, opaque*, i32, [1 x i64] }**, i8* }*, i32, { i32, i64, i32, i32 }*, [512 x i8], [512 x i8], [512 x i8], [512 x i8], [512 x i8], [512 x i8], [512 x i8], opaque*, opaque*, opaque*, opaque*, opaque*, opaque*, opaque*, [4 x i64], [20 x i32], [4 x i64], [4 x i64], { i32, i32, i32, i64 }*, { i32, i32, i32 }*, i32, i32, i32, i32, i32, i32, i64, i32, i32, i32, i32 }** <%ID>, align 8":2278,"<%ID> = call i32 ({ i32, i8*, i8*, i8*, i8*, i8*, i8*, i8*, i8*, i8*, i8*, i8*, { opaque*, opaque*, i32 }*, opaque*, i32, i32, i64, i16, i8, [1 x i8], i8*, i64, i8*, i8*, i8*, i8*, i64, i32, [20 x i8] }*, i8*, ...) <@ID>({ i32, i8*, i8*, i8*, i8*, i8*, i8*, i8*, i8*, i8*, i8*, i8*, { opaque*, opaque*, i32 }*, opaque*, i32, i32, i64, i16, i8, [1 x i8], i8*, i64, i8*, i8*, i8*, i8*, i64, i32, [20 x i8] }* <%ID>, i8* getelementptr inbounds ([2":2279,"##{ [512 x i8], i32, i32, i32, i32, i32, i32, i32, i32, i32, i32, i32, i32, i32, i32, i64, i64, i32, i32, i32, i8*, i32*, { { opaque*, opaque*, i32, [1 x i64] }, { opaque*, opaque*, i32, [1 x i64] }*, i32, i32, i32, i32, i32, i32, i32, i32, i32, i32, i32*, { opaque*, opaque*, i32, [1 x i64] }**, i8* }*, i32, { i32, i64, i32, i32 }*, [512 x i8], [512 x i8], [512 x i8], [512 x i8], [512 x i8], [512 x i8], [512 x i8], opaque*, opaque*, opaque*, opaque*, opaque*, opaque*, opaque*, [4 x i64], [20 x i32], [4 x i64], [4 x i64], { i32, i32, i32, i64 }*, { i32, i32, i32 }*, i32, i32, i32, i32, i32, i32, i64, i32, i32, i32, i32 }** <%ID>":2280,"<%ID> = load { i32, i8, [512 x i8], [512 x i8], i32, i32, i32, i32, i32 }*, ":2281,"##], [30":2282,"##0 x i8], [30":2283,"##1 x i8], [2":2284,"<%ID> = load { i64, i64 }*, { i64, i64 }** <%ID>, align 8":2285,"<%ID> = call i32 (i8*, ...) <@ID>(i8* getelementptr inbounds ([34 x i8], [34":2286,"##[14 x i32]":2287,"## x i8], [49":2288,"<%ID> = load { i32, i8, [512 x i8], [512 x i8], i32, i32, i32, i32, i32 }*, { i32, i8, [512 x i8], [512 x i8], i32, i32, i32, i32, i32 }** <%ID>, align 8":2289,"##[5 x double]*":2290,"<LABEL>: ; preds = { <LABEL>*, <LABEL>*, i32 }0":2291,"##8800 x [8 x double]], align 16":2292,"call void <@ID>(i8* nonnull align 16":2293,"##[5 x double]** <%ID>":2294,"<@ID> = internal global [64 x double] zeroinitializer, align 16":2295,"<%ID> = getelementptr inbounds [5 x [5 x double]], [5 x [5 x double]]* <%ID>, i64 <INT>":2296,"<LABEL>: ; preds = { <LABEL>*, <LABEL>*, i32 }1":2297,"##bitcast ([155501232 x double]* <@ID> to i8*)":2298,"<%ID> = getelementptr inbounds { i64, i64 }, { i64, i64 }* <%ID>, i64 <%ID>":2299,"<%ID> = alloca [5 x [5 x [5 x double]]], align 16":2300,"store <4 x i32> <i32 <INT>, i32 <INT>, i32 <INT>, i32 <INT>>, <4 x i32>* bitcast (i32":2301,"<%ID> = sitofp i64":2302,"tail call void <@ID>(i32 <INT>)":2303,"<%ID> = bitcast i8* <%ID> to ":2304,"## <2 x i32>":2305,"<@ID> = private unnamed_addr constant [20 x i8]  <STRING>, align 1":2306,"<%ID> alloca point\" = bitcast i32 <INT> to i32":2307,"<%ID> = call i32 ({ i32, i8*, i8*, i8*, i8*, i8*, i8*, i8*, i8*, i8*, i8*, i8*, { <%ID>*, <%ID>*, i32 }*, <%ID>*, i32, i32, i64, i16, i8, [1 x i8], i8*, i64, i8*, i8*, i8*, i8*, i64, i32, [20 x i8] }*, i8*, ...) <@ID>({ i32, i8*, i8*, i8*, i8*, i8*, i8*, i8*, i8*, i8*, i8*, i8*, { <%ID>*, <%ID>*, i32 }*, <%ID>*, i32, i32, i64, i16, i8, [1 x i8], i8*, i64, i8*, i8*, i8*, i8*, i64, i32, [20 x i8] }":2308,"##* <%ID>, double <%ID>)":2309,"##align 8 dereferenceable(16) <%ID>":2310,"<%ID> = getelementptr inbounds [8 x double], [8 x double]":2311,"## x i64]":2312,"##{ i32, i8*, i8*, i8*, i8*, i8*, i8*, i8*, i8*, i8*, i8*, i8*, { <%ID>*, <%ID>*, i32 }*, <%ID>*, i32, i32, i64, i16, i8, [1 x i8], i8*, i64, i8*, i8*, i8*, i8*, i64, i32, [20 x i8] }*, ":2313,"<%ID> = load { i32, i8*, i8*, i8*, i8*, i8*, i8*, i8*, i8*, i8*, i8*, i8*, { <%ID>*, <%ID>*, i32 }*, <%ID>*, i32, i32, i64, i16, i8, [1 x i8], i8*, i64, i8*, i8*, i8*, i8*, i64, i32, [20 x i8] }*, ":2314,"## { i32, i8*, i8*, i8*, i8*, i8*, i8*, i8*, i8*, i8*, i8*, i8*, { <%ID>*, <%ID>*, i32 }*, <%ID>*, i32, i32, i64, i16, i8, [1 x i8], i8*, i64, i8*, i8*, i8*, i8*, i64, i32, [20 x i8] }":2315,"##, i8* <@ID>":2316,"##, i8* <@ID>, align 1":2317,"<%ID> = call i32 (i8*, ...) <@ID>(i8* getelementptr inbounds ([37 x i8], [37 x i8]* <@ID>, i32 <INT>, i32 <INT>), i8* getelementptr inbounds ([1":2318,"<%ID> = phi i32 [ <%ID>, <%ID> ], [ ":2319,"##4 x ":2320,"## ], [":2321,"store i8* getelementptr inbounds ([6 x i8], [6":2322,"##[5 x [5 x double]]], [":2323,"##, label { { <%ID>*, <%ID>*, i32, [1 x i64] }, { <%ID>*, <%ID>*, i32, [1 x i64] }*, i32, i32, i32, i32, i32, i32, i32, i32, i32, i32, i32*, { <%ID>*, <%ID>*, i32, [1 x i64] }**, i8* }":2324,"##* <%ID> to i64*":2325,"##* <@ID>, i64 <INT>, i64 <INT>, i64 <INT>, i64 <INT>":2326,"##9, align 4":2327,"store i64* <%ID>, i64** <%ID>, align 8":2328,"##{ double, double }* <%ID>, ":2329,"## x i64], [20":2330,"<%ID> = call i32 (i8*, ...) <@ID>(i8* getelementptr inbounds ([42 x i8], [42 x i8]* <@ID>, i32 <INT>, i32 <INT>)":2331,"<@ID> = global ":2332,"## x i8]* <@ID>, i32 <INT>, i32 <INT>), i64 <%ID>)":2333,"##* <@ID>, i64 <INT>, i64 <INT>, i64 <INT>, i64 <INT>, i64 <INT>)":2334,"##8800 x i32], [8800 x i32]* <@ID>, i32 <INT>, i32 <INT>)":2335,"## [102 x [103 x [5 x [5 x double]]]]":2336,"store double <FLOAT>, double* getelementptr inbounds ([5 x double], [5 x double]* <@ID>, i64 <INT>, i64 <INT>)":2337,"<%ID> = zext":2338,"<%ID> = call i32 (i8*, ...) <@ID>(i8* getelementptr inbounds ([39 x i8], [39 x i8]* <@ID>, i32 <INT>, i32 <INT>), double <%ID>)":2339,"## <FLOAT>, <%ID> ]":2340,"<%ID> = add nsw i64 <%ID>, <%ID>":2341,"## x i32]]* <@ID>, i64 <INT>, i64 <INT>, i64 <INT>) to <4 x i32>*)":2342,"<%ID> = getelementptr inbounds [14":2343,"##, i8* <%ID>, i8* <%ID>)":2344,"##* <%ID>, i8* getelementptr inbounds ([3 x i8], [3 x i8]* <@ID>, i32 <INT>, i32 <INT>))":2345,"<%ID> = getelementptr inbounds [11 x [3 x i32]], [11 x [3 x i32]]* <%ID>, i64 <INT>, i64 <%ID>":2346,"##[5 x [5 x double]]]] zeroinitializer, align 16":2347,"##7 x [5 x [5 x [5 x double]]]], align 16":2348,"##[5 x [3 x double]]], [2 x [5 x [3 x double]]]* <@ID>, i64 <INT>, i64 <%ID>":2349,"<%ID> = getelementptr inbounds [2 x [5 x [3 x double]]], [2 x [5 x [3 x double]]]* <@ID>, i64 <INT>, i64 <%ID>":2350,"## to i8*), i64 <%ID>":2351,"<%ID> = alloca [2":2352,"##], [10":2353,"<%ID> = getelementptr inbounds [2 x [5 x [5 x double]]], [2 x [5 x [5 x double]]]":2354,"<@ID> = private unnamed_addr constant [41 x i8]  <STRING>, align 1":2355,"store [5 x double]* <%ID>, [5 x double]** <%ID>, align 8":2356,"<%ID> = getelementptr inbounds { i32, i32, i32 }, ":2357,"## to <2 x double>*":2358,"## to <2 x double>*)":2359,"##8800 x [6 x [4 x i32]]":2360,"<@ID> = external global [8800 x [8 x double]], align 16":2361,"##[5 x [5 x double]]], [7 x [5 x [5 x double]]]":2362,"<%ID> = getelementptr inbounds [16 x i8], [16 x i8]* <%ID>, i32 <INT>, i32 <INT>":2363,"<%ID> = bitcast [5 x [5 x double]]* <%ID> to double*":2364,"<%ID> = sitofp i64 <%ID> to double":2365,"<%ID> = call i32 (i8*, ...) <@ID>(i8* getelementptr inbounds ([38 x i8], [38":2366,"##[5 x double]*, align 8":2367,"<%ID> = alloca [5 x double]*, align 8":2368,"##2 x double]* <@ID>, i64 <INT>, i64 <%ID>":2369,"<%ID> = call i32 (i8*, ...) <@ID>(i8* getelementptr inbounds ([40 x i8], [40":2370,"<%ID> = call i32 (i8*, ...) <@ID>(i8* getelementptr inbounds ([25 x i8], [25 x i8]* <@ID>, i32 <INT>, i32 <INT>), i8* <%ID>)":2371,"##[5 x [5 x double]]], [7 x [5 x [5 x double]]]* <@ID>, i64 <INT>, i64 <%ID>":2372,"<%ID> = getelementptr inbounds [7 x [5 x [5 x double]]], [7 x [5 x [5 x double]]]* <@ID>, i64 <INT>, i64 <%ID>":2373,"call void <@ID>({ i32, i8*, i8*, i8*, i8*, i8*, i8*, i8*, i8*, i8*, i8*, i8*, { opaque*, opaque*, i32 }*, opaque*, i32, i32, i64, i16, i8, [1 x i8], i8*, i64, i8*, i8*, i8*, i8*, i64, i32, [20 x i8] }* <%ID>":2374,"<%ID> = tail call i32 ({ i32, i8*, i8*, i8*, i8*, i8*, i8*, i8*, i8*, i8*, i8*, i8*, { opaque*, opaque*, i32 }*, opaque*, i32, i32, i64, i16, i8, [1 x i8], i8*, i64, i8*, i8*, i8*, i8*, i64, i32, [20 x i8] }*, i8*, ...) <@ID>({ i32, i8*, i8*, i8*, i8*, i8*, i8*, i8*, i8*, i8*, i8*, i8*, { opaque*, opaque*, i32 }*, opaque*, i32, i32, i64, i16, i8, [1 x i8], i8*, i64, i8*, i8*, i8*, i8*, i64, i32, [20 x i8] }* <%ID>":2375,"<%ID> = getelementptr inbounds [12 x i8*], [12 x i8*]* <%ID>, i64 <INT>, i64 <INT>":2376,"<%ID> = getelementptr inbounds [70400":2377,"<%ID> = getelementptr inbounds [2 x [2 x i32]], [2 x [2 x i32]]* <%ID>, i64 <INT>, i64 <%ID>":2378,"<%ID> = getelementptr i8, i8* bitcast (double":2379,"## <%ID>, double <%ID>, double <%ID>, double <%ID>)":2380,"##]* <@ID>, i32 <INT>, i32 <INT>, i32 <INT>, i32 <INT>)":2381,"##], [2 x [3 x [5 x double]]":2382,"##2 x [3 x [5 x double]]], [2 x [3 x [5 x double]]":2383,"##89":2384,"## x i8]* <@ID>, i64 <INT>, i64 <INT>), i32 <%ID>)":2385,"<%ID> = load i32*, i32** <%ID>":2386,"call void <@ID>(double <%ID>, double <%ID>, double <%ID>, double* <%ID>)":2387,"##[5 x double]* <%ID>, [5 x double]":2388,"## x [8 x [2 x i32]]":2389,"<%ID> = call i32 ({ i32, i8*, i8*, i8*, i8*, i8*, i8*, i8*, i8*, i8*, i8*, i8*, { opaque*, opaque*, i32 }*, opaque*, i32, i32, i64, i16, i8, [1 x i8], i8*, i64, i8*, i8*, i8*, i8*, i64, i32, [20 x i8] }*, i8*, ...) <@ID>({ i32, i8*, i8*, i8*, i8*, i8*, i8*, i8*, i8*, i8*, i8*, i8*, { opaque*, opaque*, i32 }*, opaque*, i32, i32, i64, i16, i8, [1 x i8], i8*, i64, i8*, i8*, i8*, i8*, i64, i32, [20 x i8] }* <%ID>, i8* getelementptr inbounds (":2390,"##3 x i8], [23 x i8]* <@ID>, i64 <INT>, i64 <INT>), i8* <%ID>)":2391,"##8800 x i32] zeroinitializer, align 16":2392,"##8800 x [5 x [5 x [5 x double]]]], align 16":2393,"## x i8]* <@ID>, i32 <INT>, i32 <INT>), i8* getelementptr inbounds ([7 x i8], [7 x i8]* <@ID>, i32 <INT>, i32 <INT>), i8* getelementptr inbounds ([7 x i8], [7":2394,"##1 x i8], [4":2395,"##{ opaque*, opaque*, i32, [1 x i64] }*** <%ID>, align 8":2396,"<%ID> = getelementptr inbounds [3 x i32], [3 x i32]* <@ID>, i64 <INT>, i64 <%ID>":2397,"##3 x i32>":2398,"## x i64>":2399,"<%ID> = getelementptr inbounds [5 x [5 x double]], [5 x [5 x double]]* <%ID>, i64 <INT>, i64 <INT>, i64 <INT>":2400,"##[5 x double]], [3 x ":2401,"<%ID> = getelementptr inbounds [3 x [5 x double]], [3 x ":2402,"<%ID> = getelementptr inbounds [3 x [5 x double]], [3 x [5 x double]]":2403,"##8800 x [8 x double]], [8800 x [8":2404,"##* nonnull <%ID>, ":2405,"<%ID> = getelementptr inbounds [4 x double], [":2406,"<%ID> = load { opaque*, opaque*, i32, [1 x i64] }*":2407,"<%ID> = bitcast i8** <%ID> to i8*":2408,"##, label { i32, i32, i32, i32, i32, i32, i32, i32, i32, i64, i8* }":2409,"##[4":2410,"<%ID> = bitcast i64* <%ID> to i8*":2411,"<%ID> = phi { [512 x i8], i32, i32, i32, i32, i32, i32, i32, i32, i32, i32, i32, i32, i32, i32, i64, i64, i32, i32, i32, i8*, i32*, { { opaque*, opaque*, i32, [1 x i64] }, { opaque*, opaque*, i32, [1 x i64] }*, i32, i32, i32, i32, i32, i32, i32, i32, i32, i32, i32*, { opaque*, opaque*, i32, [1 x i64] }**, i8* }*, i32, { i32, i64, i32, i32 }*, [512 x i8], [512 x i8], [512 x i8], [512 x i8], [512 x i8], [512 x i8], [512 x i8], opaque*, opaque*, opaque*, opaque*, opaque*, opaque*, opaque*, [4 x i64], [20 x i32], [4 x i64], [4 x i64], { i32, i32, i32, i64 }*, { i32, i32, i32 }*, i32, i32, i32, i32, i32, i32, i64, i32, i32, i32, i32 }":2412,"call fastcc":2413,"<%ID> = load { opaque*, opaque*, i32, [1 x i64] }**, ":2414,"store i8* getelementptr inbounds ([8 x i8], [8":2415,"<%ID> = getelementptr inbounds [3 x [5 x double]], [3 x [5 x double]]* <%ID>, i64 <INT>, i64 <INT>":2416,"##[4 x i32]":2417,"##* getelementptr inbounds ([2 x [5 x [3 x double]]], [2 x [5 x [3 x double]]]* <@ID>, i64 <INT>, i64 <INT>, i64 <INT>, i64 <INT>)":2418,"<%ID> = bitcast [5 x double]":2419,"##[14 x double]":2420,"##4 x i8], [1":2421,"## x i8]* <@ID>, i32 <INT>, i32 <INT>), double <%ID>, double <%ID>)":2422,"##9 x i8], [49":2423,"<%ID> = getelementptr inbounds [12 x double], [1":2424,"<%ID> = getelementptr inbounds [2 x [3 x [5 x double]]], [2 x [3 x [5 x double]]":2425,"##8800 x [6 x [2 x [2 x [5 x [5 x i32]]]]]]":2426,"<%ID> = getelementptr inbounds [49 x i8], [49":2427,"br label { [512 x i8], i32, i32, i32, i32, i32, i32, i32, i32, i32, i32, i32, i32, i32, i32, i64, i64, i32, i32, i32, i8*, i32*, { { <%ID>*, <%ID>*, i32, [1 x i64] }, { <%ID>*, <%ID>*, i32, [1 x i64] }*, i32, i32, i32, i32, i32, i32, i32, i32, i32, i32, i32*, { <%ID>*, <%ID>*, i32, [1 x i64] }**, i8* }*, i32, { i32, i64, i32, i32 }*, [512 x i8], [512 x i8], [512 x i8], [512 x i8], [512 x i8], [512 x i8], [512 x i8], <%ID>*, <%ID>*, <%ID>*, <%ID>*, <%ID>*, <%ID>*, <%ID>*, [4 x i64], [20 x i32], [4 x i64], [4 x i64], { i32, i32, i32, i64 }*, { i32, i32, i32 }*, i32, i32, i32, i32, i32, i32, i64, i32, i32, i32, i32 }":2428,"<@ID> = external global [8800 x [5 x [5 x [5 x double]]]], align 16":2429,"##, i8* { <%ID>*, <%ID>*, i32 }":2430,"## i32 <%ID>, ":2431,"##75001":2432,"<%ID> = load { opaque*, opaque*, i32, [1 x i64] }**, { opaque*, opaque*, i32, [1 x i64] }*** <%ID>, align 8":2433,"## x [2 x i32]], [4 x [2":2434,"##, i32 <%ID>, i32 <%ID>, i32 <%ID>)":2435,"##, i64 <%ID>, i64 <%ID>, i64 <%ID>":2436,"<%ID> = icmp eq i8 <%ID>, <INT>":2437,"<%ID> = getelementptr inbounds [5 x [3 x double]], [5 x [3 x double]]* <%ID>, i64 <INT>, i64 <%ID>":2438,"##4, align 4":2439,"<%ID> = getelementptr inbounds [28 x i32], [28 x i32]* <%ID>, i32 <INT>, i32 <INT>":2440,"<%ID> = mul nsw i64 <%ID>, <INT>":2441,"tail call void":2442,"##0, align 8":2443,"store i32 <INT>, i32* getelementptr inbounds ([8 x [3 x i32]], [8 x [3 x i32]]* <@ID>, i64 <INT>, i64 <INT>, i64 <INT>), align 8":2444,"## x i8]* <@ID>, i64 <INT>, i64 <INT>), double":2445,"<%ID> = call i32 (i8*, ...) <@ID>(i8* getelementptr inbounds ([":2446,"## <%ID>, i32 <%ID>, i32 <%ID>, double":2447,"<%ID> = getelementptr inbounds [2 x [5 x [5 x double]]], [2 x [5 x [5 x double]]]* <%ID>, i64 <INT>, i64 <%ID>":2448,"##double], align 16":2449,"<@ID> = private unnamed_addr constant [36 x i8]  <STRING>, align 1":2450,"## [102 x [103 x [103 x double]]] zeroinitializer, align 16":2451,"<@ID> = private unnamed_addr constant [46 x i8]  <STRING>, align 1":2452,"<%ID> = icmp eq ":2453,"<%ID> = getelementptr inbounds i8*, i8*":2454,"<@ID> = private unnamed_addr constant [19":2455,"<%ID> = srem":2456,"<%ID> = getelementptr inbounds [4 x [2 x i32]], [4 x [2":2457,"<%ID> = getelementptr inbounds [4 x [2 x i32]], [4 x [2 x i32]]* <@ID>, i64 <INT>, i64 <%ID>":2458,"<LABEL>: ; preds = { <LABEL>*, <LABEL>*, i32, [1 x i64] }":2459,"##* <%ID>, i8* <%ID>)":2460,"## i16, i16":2461,"##lsh":2462,"<%ID> = lsh":2463,"<%ID> = getelementptr inbounds [4 x i64], [4 x i64":2464,"<%ID> = call i32 (i8*, ...) <@ID>(i8* nonnull dereferenceable(1) getelementptr inbounds ([23 x i8], [23 x i8]* <@ID>, i64 <INT>, i64 <INT>), i8* <%ID>)":2465,"<@ID> = external local_unnamed_addr global [102 x ":2466,"<%ID> = getelementptr [102 x ":2467,"store i64 ":2468,"store <4 x i32> <i32 <INT>, i32 <INT>, i32 <INT>, i32 <INT>>, <4 x i32>* bitcast (i32* getelementptr inbounds ([":2469,"##* <@ID> to":2470,"<%ID> = getelementptr inbounds [8800 x [6 x [2 x [2 x i32]]]], [8800 x [6 x [2 x [2 x i32]]]]* <@ID>, i64 <INT>, i64 <%ID>, i64 <INT>, i64 <INT>, i64 <INT>":2471,"<%ID> = getelementptr inbounds { opaque*, opaque*, i32, [1 x i64] }*, ":2472,"<%ID> = getelementptr inbounds { opaque*, opaque*, i32, [1 x i64] }*, { opaque*, opaque*, i32, [1 x i64] }*":2473,"##3, align 8":2474,"## x i8*], [16":2475,"##[512 x ":2476,"<%ID> = getelementptr inbounds { i32, i64 }, { i32, i64 }":2477,"##{ i32, i64 }* <%ID>, i32 <INT>, i32 <INT>":2478,"<%ID> = getelementptr inbounds { i32, i64 }, { i32, i64 }* <%ID>, i32 <INT>, i32 <INT>":2479,"sw":2480,"##ch":2481,"##itch":2482,"switch":2483,"<%ID> = getelementptr inbounds [16 x i8*], [16":2484,"<%ID> = getelementptr [5 x ":2485,"<%ID> = icmp ugt":2486,"<%ID> = getelementptr inbounds { i32, i32, i64, i32, i64, double":2487,"## }, { i32, i32, i64, i32, i64, double":2488,"<%ID> = getelementptr inbounds { i32, i32, i64, i32, i64, double }, { i32, i32, i64, i32, i64, double":2489,"## x i8]* <@ID>, i32 <INT>, i32 <INT>), i32 <%ID>, i32 <%ID>, i32 <%ID>)":2490,"##[2 x i32]** <%ID>, align 8":2491,"<%ID> = call i32 (i8*, ...) <@ID>(i8* getelementptr inbounds ([44 x i8], [44":2492,"##, i8* nonnull align 8 dereferenceable(16) <%ID>":2493,"##, i8* nonnull align 8 dereferenceable(16) <%ID>, i64 <INT>, i1 false)":2494,"<@ID> = external global [7 x [5 x [5 x [5 x double]]]], align 16":2495,"##0, align 4":2496,"<%ID> = call i32 ({ i32, i8*, i8*, i8*, i8*, i8*, i8*, i8*, i8*, i8*, i8*, i8*, { opaque*, opaque*, i32 }*, opaque*, i32, i32, i64, i16, i8, [1 x i8], i8*, i64, i8*, i8*, i8*, i8*, i64, i32, [20 x i8] }*, i8*, ...) <@ID>({ i32, i8*, i8*, i8*, i8*, i8*, i8*, i8*, i8*, i8*, i8*, i8*, { opaque*, opaque*, i32 }*, opaque*, i32, i32, i64, i16, i8, [1 x i8], i8*, i64, i8*, i8*, i8*, i8*, i64, i32, [20 x i8] }* <%ID>, i8* getelementptr inbounds ([4":2497,"<%ID> = getelementptr inbounds [6 x double], [6 x double]* <%ID>, i64 <INT>, i64 <%ID>":2498,"<%ID> = bitcast double* <%ID> to [":2499,"call void <@ID>(i8* nonnull align 16 dereferenceable(16) <%ID>":2500,"<%ID> = load i64, i64* <@ID>, align 8":2501,"<%ID> = call i32 (i8*, ...) <@ID>(i8* getelementptr inbounds ([30 x i8], [30":2502,"<%ID> = call i32 (i8*, ...) <@ID>(i8* getelementptr inbounds ([28 x i8], [28":2503,"##[103 x [5 x [5 x double]]]], [102 x [103 x [5 x [5 x double]]]]":2504,"##33 x { double, double }":2505,"##* getelementptr inbounds ([8800 x [8 x double]], [8800 x [8":2506,"##6 x i8], [4":2507,"##6 x i8], [46":2508,"<%ID> = getelementptr inbounds i8*, i8** <%ID>, i64 <INT>":2509,"<%ID> = alloca i8*":2510,"##[5 x [5 x [5 x double]]]], [4 x ":2511,"##1, align 4":2512,"## <%ID>, i64 <%ID>":2513,"<%ID> = getelementptr inbounds { opaque*, opaque*, i32, [1 x i64] }*, { opaque*, opaque*, i32, [1 x i64] }** <%ID>, i64 <%ID>":2514,"call void <@ID>(i64 <INT>, i8* nonnull <%ID>)":2515,"<%ID> = getelementptr inbounds [2 x [5 x [5 x i32]]], [2 x [5 x [5 x i32]]]* <%ID>, i64 <INT>, i64 <%ID>":2516,"<%ID> = getelementptr inbounds [2 x [2 x [5 x [5 x i32]]]], [2 x [2 x [5 x [5 x i32]]]]* <%ID>, i64 <INT>, i64 <%ID>":2517,"<%ID> = sub nsw i64 <%ID>, <%ID>":2518,"##* <%ID>, i32 <%ID>, i32 <%ID>)":2519,"<%ID> = and i1":2520,"##4 x i8], [14":2521,"##* bitcast (double* getelementptr inbounds ([5 x ":2522,"<%ID> = alloca { [512 x i8], i32, i32, i32, i32, i32, i32, i32, i32, i32, i32, i32, i32, i32, i32, i64, i64, i32, i32, i32, i8*, i32*, { { opaque*, opaque*, i32, [1 x i64] }, { opaque*, opaque*, i32, [1 x i64] }*, i32, i32, i32, i32, i32, i32, i32, i32, i32, i32, i32*, { opaque*, opaque*, i32, [1 x i64] }**, i8* }*, i32, { i32, i64, i32, i32 }*, [512 x i8], [512 x i8], [512 x i8], [512 x i8], [512 x i8], [512 x i8], [512 x i8], opaque*, opaque*, opaque*, opaque*, opaque*, opaque*, opaque*, [4 x i64], [20 x i32], [4 x i64], [4 x i64], { i32, i32, i32, i64 }*, { i32, i32, i32 }*, i32, i32, i32, i32, i32, i32, i64, i32, i32, i32, i32 }*, ":2523,"<%ID> = alloca { [512 x i8], i32, i32, i32, i32, i32, i32, i32, i32, i32, i32, i32, i32, i32, i32, i64, i64, i32, i32, i32, i8*, i32*, { { opaque*, opaque*, i32, [1 x i64] }, { opaque*, opaque*, i32, [1 x i64] }*, i32, i32, i32, i32, i32, i32, i32, i32, i32, i32, i32*, { opaque*, opaque*, i32, [1 x i64] }**, i8* }*, i32, { i32, i64, i32, i32 }*, [512 x i8], [512 x i8], [512 x i8], [512 x i8], [512 x i8], [512 x i8], [512 x i8], opaque*, opaque*, opaque*, opaque*, opaque*, opaque*, opaque*, [4 x i64], [20 x i32], [4 x i64], [4 x i64], { i32, i32, i32, i64 }*, { i32, i32, i32 }*, i32, i32, i32, i32, i32, i32, i64, i32, i32, i32, i32 }*, align 8":2524,"<LABEL>: ; preds = <LABEL>, { <LABEL>*, <LABEL>*, i32 }":2525,"<%ID> = getelementptr inbounds [4 x i64], [4 x i64]* <%ID>, i64 <INT>, i64 <%ID>":2526,"##, <%ID> ], [ 1":2527,"<%ID> = getelementptr inbounds [75002 x double], [7500":2528,"##9 x i8], [1":2529,"<%ID> = alloca i64*, align 8":2530,"##9 x i8], [19":2531,"## { double, double }":2532,"##* getelementptr inbounds ([2 x [5 x [3 x double]]], [2 x [5 x [3 x double]]]* <@ID>, i64 <INT>, i64 <INT>), i64 <INT>, i64 <%ID>":2533,"<%ID> = getelementptr inbounds [5 x [3 x double]], [5 x [3 x double]]* getelementptr inbounds ([2 x [5 x [3 x double]]], [2 x [5 x [3 x double]]]* <@ID>, i64 <INT>, i64 <INT>), i64 <INT>, i64 <%ID>":2534,"##4 x i32]], align 16":2535,"##, i64 <INT>, i64 <INT>, i64 <INT>, i64 <INT>, i64 <INT>, i64 <INT>, i64 <INT>, i64 <INT>":2536,"<%ID> = getelementptr inbounds [75002 x double], [75002 x double]* <@ID>, i64 <INT>, i64 <%ID>":2537,"##{ i32, i8*, i8*, i8*, i8*, i8*, i8*, i8*, i8*, i8*, i8*, i8*, { <%ID>*, <%ID>*, i32 }*, <%ID>*, i32, i32, i64, i16, i8, [1 x i8], i8*, i64, i8*, i8*, i8*, i8*, i64, i32, [20 x i8] }** <%ID>, align 8":2538,"<%ID> = getelementptr inbounds [12 x double], [12 x ":2539,"##{ i64, i64 }, align 8":2540,"call void <@ID>(double* getelementptr inbounds ([334600 x double], [334600 x double]":2541,"<%ID> = call i32 <@ID>(i32 <%ID>, i32 <%ID>, i32 <%ID>, i32 <%ID>)":2542,"##{ i32, i64 }*, ":2543,"<%ID> = call double <@ID>()":2544,"## getelementptr inbounds ([":2545,"define void <@ID>(double* <%ID>)":2546,"##, i8* getelementptr inbounds ([6 x i8], [6":2547,"##{ [512 x i8], i32, i32, i32, i32, i32, i32, i32, i32, i32, i32, i32, i32, i32, i32, i64, i64, i32, i32, i32, i8*, i32*, { { opaque*, opaque*, i32, [1 x i64] }, { opaque*, opaque*, i32, [1 x i64] }*, i32, i32, i32, i32, i32, i32, i32, i32, i32, i32, i32*, { opaque*, opaque*, i32, [1 x i64] }**, i8* }*, i32, { i32, i64, i32, i32 }*, [512 x i8], [512 x i8], [512 x i8], [512 x i8], [512 x i8], [512 x i8], [512 x i8], opaque*, opaque*, opaque*, opaque*, opaque*, opaque*, opaque*, [4 x i64], [20 x i32], [4 x i64], [4 x i64], { i32, i32, i32, i64 }*, { i32, i32, i32 }*, i32, i32, i32, i32, i32, i32, i64, i32, i32, i32, i32 }* <%ID>)":2548,"<LABEL>: ; preds = { <LABEL>*, <LABEL>*, i32 }6":2549,"##* <%ID>, i64 <INT>, i32 <INT>)":2550,"##7 x i8], [1":2551,"##7 x i8], [17":2552,"## x i8]* <%ID>, i64 <INT>, i64 <INT>":2553,"<%ID> = phi double* [ <%ID>, <%ID> ]":2554,"store <2 x double> <double <FLOAT>, double <FLOAT>>, <2 x double>* <%ID>, align 16":2555,"<%ID> = call i32 (i8*, ...) <@ID>(i8* getelementptr inbounds ([24 x i8], [24":2556,"<%ID> = bitcast i32* <%ID> to [":2557,"##* { <%ID>*, <%ID>*, i32 }1":2558,"<@ID> = common global [8800 x i32] zeroinitializer, align 16":2559,"<%ID> = and i1 <%ID>, <%ID>":2560,"##{ double, double }*":2561,"## x [5 x [5 x [5 x double]]]], [4 x ":2562,"<%ID> = getelementptr inbounds [4 x [5 x [5 x [5 x double]]]], [4 x ":2563,"store double* <%ID>, double":2564,"<%ID> = call i32 <@ID>(i8* <%ID>, i8* getelementptr inbounds ([3 x i8], [3 x i8]* <@ID>, i32 <INT>, i32 <INT>))":2565,"<%ID> = getelementptr inbounds [10":2566,"<%ID> = call i32 ({ i32, i8*, i8*, i8*, i8*, i8*, i8*, i8*, i8*, i8*, i8*, i8*, { opaque*, opaque*, i32 }*, opaque*, i32, i32, i64, i16, i8, [1 x i8], i8*, i64, i8*, i8*, i8*, i8*, i64, i32, [20 x i8] }*, i8*, ...) <@ID>({ i32, i8*, i8*, i8*, i8*, i8*, i8*, i8*, i8*, i8*, i8*, i8*, { opaque*, opaque*, i32 }*, opaque*, i32, i32, i64, i16, i8, [1 x i8], i8*, i64, i8*, i8*, i8*, i8*, i64, i32, [20 x i8] }* <%ID>, i8* getelementptr inbounds ([27 x i8], [27 x i8]* <@ID>, i32 <INT>, i32 <INT>), i32 <%ID>)":2567,"##{ i64*, i64*, i64 }*** <%ID>, align 8":2568,"## <%ID>, i8* ":2569,"<%ID> = load double, double* getelementptr inbounds ([5 x double], [5 x double]* <@ID>, i64 <INT>, i64 <INT>)":2570,"call void <@ID>([5 x double]":2571,"<%ID> = call i32 (i8*, ...) <@ID>(i8* nonnull dereferenceable(1) getelementptr inbounds ([37 x i8], [37":2572,"br label { { <%ID>*, <%ID>*, i32, [1 x i64] }, { <%ID>*, <%ID>*, i32, [1 x i64] }*, i32, i32, i32, i32, i32, i32, i32, i32, i32, i32, i32*, { <%ID>*, <%ID>*, i32, [1 x i64] }**, i8* }":2573,"##2, align 8":2574,"##4 x [2 x i32]], [4 x [2":2575,"store i32 <INT>, i32* getelementptr inbounds ([4 x [2 x i32]], [4 x [2":2576,"<@ID> = private unnamed_addr constant [15 x i8]  <STRING>, align 1":2577,"<%ID> = getelementptr inbounds { i32, i32, i64, i32, i64, double }, { i32, i32, i64, i32, i64, double }* <%ID>, i32 <INT>, i32 <INT>":2578,"##{ i32, i64 }** <%ID>, align 8":2579,"## bitcast (double":2580,"##75002 x double], [75002 x double]":2581,"<@ID> = external global [5 x [5 x double]], align 16":2582,"<@ID> = common global [102 x [103 x [103 x double]]] zeroinitializer, align 16":2583,"<%ID> = icmp sle i32 <INT>, <%ID>":2584,"##, label { <%ID>*, <%ID>*, i32 }1":2585,"<%ID> = getelementptr inbounds [1024":2586,"##[5 x [5 x double]]* <%ID>, [5 x [5 x double]]* <%ID>, i32 <%ID>)":2587,"store double { <%ID>*, <%ID>*, i32 }":2588,"##400 x i8], align 16":2589,"<%ID> = alloca [400 x i8], align 16":2590,"##r i64":2591,"## x i64], [20 x i64":2592,"<@ID> = internal global [1":2593,"## x i32], [70400":2594,"<%ID> = getelementptr inbounds [20":2595,"##* <@ID>()":2596,"<LABEL>: ; preds = { <LABEL>*, <LABEL>*, i32 }4":2597,"## x i64], [20 x i64]* <@ID>, i64 <INT>, i64 <%ID>":2598,"<%ID> = getelementptr inbounds [20 x i64], [20 x i64]* <@ID>, i64 <INT>, i64 <%ID>":2599,"##2 x i8], [2":2600,"##, { i32, i32, i32, i32, i32, i32, i32, i32, i32, i64, i8* }":2601,"## i32 <INT>, <INT>":2602,"##* getelementptr inbounds ([75002 x double], [75002 x double]":2603,"## x i32]] zeroinitializer, align 16":2604,"##334600 x double], align 16":2605,"<%ID> = getelementptr inbounds { i32, i64 }, { i32, i64 }* <%ID>, i64 <%ID>":2606,"<%ID> = phi double [ <%ID>, <%ID> ], [ <FLOAT>, <%ID> ]":2607,"store i8* getelementptr inbounds ([4":2608,"store i8* getelementptr inbounds ([4 x i8], [4":2609,"<%ID> = phi [102 x [103 x [103 x [5 x double]]]]* [ <%ID>, <%ID> ], [ <%ID>, <%ID> ]":2610,"##8 x i32], align 16":2611,"<%ID> = load [2 x i32]":2612,"<%ID> = load [2 x i32]*, ":2613,"## i32 { <%ID>*, <%ID>*, i32 }":2614,"<%ID> = getelementptr inbounds [4 x i32], [4 x i32]* <@ID>, i64 <INT>, i64 <%ID>":2615,"##* <%ID>, i8* getelementptr inbounds ([7 x i8], [7":2616,"store i32 <INT>, i32* getelementptr inbounds ([3 x i32], [3 x i32]* <@ID>, i64 <INT>, i64 <INT>), align 4":2617,"<%ID> = call i32 (i8*, ...) <@ID>(i8* getelementptr inbounds ([21 x i8], [2":2618,"<%ID> = call i32 <@ID>({ i32, i8*, i8*, i8*, i8*, i8*, i8*, i8*, i8*, i8*, i8*, i8*, { opaque*, opaque*, i32 }*, opaque*, i32, i32, i64, i16, i8, [1 x i8], i8*, i64, i8*, i8*, i8*, i8*, i64, i32, [20 x i8] }* <%ID>, i64 <INT>, i32 <INT>)":2619,"<@ID> = common local_unnamed_addr global [":2620,"<%ID> = o":2621,"store double <FLOAT>, double* getelementptr inbounds ([2 x [5 x [3 x double]]], [2 x [5 x [3 x double]]]* <@ID>, i64 <INT>, i64 <INT>, i64 <INT>, i64 <INT>)":2622,"##[5 x double]* <%ID>, [5 x double]* <%ID>)":2623,"##[103 x [103 x [5 x double]]]** <%ID>":2624,"<%ID> = alloca [16":2625,"##]*":2626,"<%ID> = getelementptr inbounds [4 x [5 x [5 x [5 x double]]]], [4 x [5 x [5 x [5 x double]]]]* <%ID>, i64 <INT>, i64 <INT>":2627,"call void <@ID>(i32 <%ID>, i32 <%ID>, i32":2628,"##* { { <%ID>*, <%ID>*, i32, [1 x i64] }, { <%ID>*, <%ID>*, i32, [1 x i64] }*, i32, i32, i32, i32, i32, i32, i32, i32, i32, i32, i32*, { <%ID>*, <%ID>*, i32, [1 x i64] }**, i8* }":2629,"<%ID> = load { [512 x i8], i32, i32, i32, i32, i32, i32, i32, i32, i32, i32, i32, i32, i32, i32, i64, i64, i32, i32, i32, i8*, i32*, { { opaque*, opaque*, i32, [1 x i64] }, { opaque*, opaque*, i32, [1 x i64] }*, i32, i32, i32, i32, i32, i32, i32, i32, i32, i32, i32*, { opaque*, opaque*, i32, [1 x i64] }**, i8* }*, i32, { i32, i64, i32, i32 }*, [512 x i8], [512 x i8], [512 x i8], [512 x i8], [512 x i8], [512 x i8], [512 x i8], opaque*, opaque*, opaque*, opaque*, opaque*, opaque*, opaque*, [4 x i64], [20 x i32], [4 x i64], [4 x i64], { i32, i32, i32, i64 }*, { i32, i32, i32 }*, i32, i32, i32, i32, i32, i32, i64, i32, i32, i32, i32 }*, { [512 x i8], i32, i32, i32, i32, i32, i32, i32, i32, i32, i32, i32, i32, i32, i32, i64, i64, i32, i32, i32, i8*, i32*, { { opaque*, opaque*, i32, [1 x i64] }, { opaque*, opaque*, i32, [1 x i64] }*, i32, i32, i32, i32, i32, i32, i32, i32, i32, i32, i32*, { opaque*, opaque*, i32, [1 x i64] }**, i8* }*, i32, { i32, i64, i32, i32 }*, [512 x i8], [512 x i8], [512 x i8], [512 x i8], [512 x i8], [512 x i8], [512 x i8], opaque*, opaque*, opaque*, opaque*, opaque*, opaque*, opaque*, [4 x i64], [20 x i32], [4 x i64], [4 x i64], { i32, i32, i32, i64 }*, { i32, i32, i32 }*, i32, i32, i32, i32, i32, i32, i64, i32, i32, i32, i32 }** <%ID>":2630,"## }*, { i64*, i64*, i64 }*":2631,"<%ID> = getelementptr inbounds { i64*, i64*, i64 }*, { i64*, i64*, i64 }*":2632,"<LABEL>: ; preds = { <LABEL>*, <LABEL>*, i32 }9":2633,"## <3 x i32>":2634,"<%ID> = load double*, double** <%ID>":2635,"<%ID> = load i8*, i8** <%ID>":2636,"##    ":2637,"## x i8]* <@ID>, i32 <INT>, i32 <INT>), i8* getelementptr inbounds ([27 x i8], [27":2638,"<%ID> = call i32 (i8*, ...) <@ID>(i8* getelementptr inbounds ([14 x i8], [14":2639,"## x i8]* <@ID>, i32 <INT>, i32 <INT>), i8* getelementptr inbounds ([27 x i8], [27 x i8]* <@ID>, i32 <INT>, i32 <INT>), double <%ID>)":2640,"<%ID> = call i32 (i8*, ...) <@ID>(i8* getelementptr inbounds ([14 x i8], [14 x i8]* <@ID>, i32 <INT>, i32 <INT>), i8* getelementptr inbounds ([27 x i8], [27 x i8]* <@ID>, i32 <INT>, i32 <INT>), double <%ID>)":2641,"call void <@ID>(i8* nonnull align 16 dereferenceable(16) <%ID>, i8* nonnull align 8 dereferenceable(16) <%ID>, i64 <INT>, i1 false)":2642,"##9, align 8":2643,"## <%ID>, <%ID> ], [ <%ID>, <%ID> ], [":2644,"## double <@ID>()":2645,"##]* <%ID>, i32 <INT>, i32 <INT>":2646,"## x i8]* <@ID>, i32 <INT>, i32 <INT>), i8* getelementptr inbounds ([2 x i8], [2 x i8]* <@ID>, i32 <INT>, i32 <INT>))":2647,"<%ID> = call i32 (i8*, ...) <@ID>(i8* getelementptr inbounds ([41 x i8], [4":2648,"<@ID> = private unnamed_addr constant [30 x i8]  <STRING>, align 1":2649,"switch i32 <%ID>, ":2650,"store { <%ID>*, <%ID>*, i32, [1 x i64] }":2651,"store i32 <%ID>, i32* <%ID>, align 1":2652,"## x i32]]* <@ID>, i64 <INT>, i64 <INT>, i64 <INT>) to <4 x i32>*), align 16":2653,"##label <%ID> [":2654,"##{ i64, i64 }* <%ID>, ":2655,"##{ [512 x i8], i32, i32, i32, i32, i32, i32, i32, i32, i32, i32, i32, i32, i32, i32, i64, i64, i32, i32, i32, i8*, i32*, { { <%ID>*, <%ID>*, i32, [1 x i64] }, { <%ID>*, <%ID>*, i32, [1 x i64] }*, i32, i32, i32, i32, i32, i32, i32, i32, i32, i32, i32*, { <%ID>*, <%ID>*, i32, [1 x i64] }**, i8* }*, i32, { i32, i64, i32, i32 }*, [512 x i8], [512 x i8], [512 x i8], [512 x i8], [512 x i8], [512 x i8], [512 x i8], <%ID>*, <%ID>*, <%ID>*, <%ID>*, <%ID>*, <%ID>*, <%ID>*, [4 x i64], [20 x i32], [4 x i64], [4 x i64], { i32, i32, i32, i64 }*, { i32, i32, i32 }*, i32, i32, i32, i32, i32, i32, i64, i32, i32, i32, i32 }, ":2656,"<%ID> = load [2 x i32]*, [2 x i32]** <%ID>, align 8":2657,"<%ID> = bitcast [102 x [103 x [103 x [5 x double]]]]":2658,"##* <%ID>, i32 <%ID>, i32 <%ID>, i32":2659,"##[512 x [":2660,"<@ID> = private unnamed_addr constant [22 x i8]  <STRING>, align 1":2661,"store <2 x double> <double <FLOAT>, double <FLOAT>>, <2 x double>* bitcast (double* getelementptr inbounds ([5 x ":2662,"<LABEL>: ; preds = { <LABEL>*, <LABEL>*, i32 }5":2663,"## <@ID>(i32 <%ID>)":2664,"call void <@ID>([5 x [5 x double]]* <%ID>, [5 x [5 x double]]* <%ID>, i32 <%ID>)":2665,"switch i32 <%ID>, label <%ID> [":2666,"<@ID> = external global [334600 x double], align 16":2667,"<%ID> = load { i32, i64 }*, ":2668,"## x i32], [134217728":2669,"##34217728 x i32], [134217728":2670,"<%ID> = icmp ne i32 <%ID>, <%ID>":2671,"<%ID> = bitcast { double, double }* <%ID> to ":2672,"store double <FLOAT>, double* getelementptr inbounds ([5 x [5 x double]], [5 x [5 x double]]* <@ID>, i64 <INT>, i64 <INT>, i64 <INT>), align 16":2673,"<%ID> = getelementptr inbounds [256":2674,"<%ID> = bitcast i8* <%ID> to i64*":2675,"<%ID> = fcmp oeq":2676,"## <%ID>, i64 <%ID>, i1 false)":2677,"##, i32 <INT>, i32 <INT>], align 16":2678,"## [i32 <INT>, i32 <INT>, i32 <INT>":2679,"##[103 x [103 x [5 x double]]], align 16":2680,"##[103 x [5 x [5 x double]]]], align 16":2681,"## i64 <INT>, align 8":2682,"##[5 x i32] [i32 <INT>, i32 <INT>, i32 <INT>":2683,"##[5 x i32] [i32 <INT>, i32 <INT>, i32 <INT>, i32 <INT>, i32 <INT>], align 16":2684,"##[103 x [5 x double]]*":2685,"call void <@ID>(double* <%ID>)":2686,"##, i32* getelementptr inbounds ([":2687,"<%ID> = sub i32 <INT>, <%ID>":2688,"<%ID> = call double <@ID>(double <%ID>, double <FLOAT>)":2689,"<%ID> = getelementptr":2690,"store i32 { [512 x i8], i32, i32, i32, i32, i32, i32, i32, i32, i32, i32, i32, i32, i32, i32, i64, i64, i32, i32, i32, i8*, i32*, { { <%ID>*, <%ID>*, i32, [1 x i64] }, { <%ID>*, <%ID>*, i32, [1 x i64] }*, i32, i32, i32, i32, i32, i32, i32, i32, i32, i32, i32*, { <%ID>*, <%ID>*, i32, [1 x i64] }**, i8* }*, i32, { i32, i64, i32, i32 }*, [512 x i8], [512 x i8], [512 x i8], [512 x i8], [512 x i8], [512 x i8], [512 x i8], <%ID>*, <%ID>*, <%ID>*, <%ID>*, <%ID>*, <%ID>*, <%ID>*, [4 x i64], [20 x i32], [4 x i64], [4 x i64], { i32, i32, i32, i64 }*, { i32, i32, i32 }*, i32, i32, i32, i32, i32, i32, i64, i32, i32, i32, i32 }":2691,"br i1 false":2692,"##* getelementptr inbounds ([8800 x [8 x double]], [8800 x [8 x double]]":2693,"<%ID> = fcmp ole double <%ID>, <%ID>":2694,"##{ i32, i32, i32 }** <%ID>, align 8":2695,"<LABEL>: ; preds = { <LABEL>*, <LABEL>*, i32 }8":2696,"<%ID> = load i8*":2697,"<%ID> = load i8**, i8*":2698,"<LABEL>: ; preds = { <LABEL>*, <LABEL>*, i32 }7":2699,"<%ID> = icmp sge i32 <%ID>, <%ID>":2700,"<%ID> = alloca [16 x i8], align 16":2701,"<%ID> = fdiv double <%ID>, <FLOAT>":2702,"<%ID> = fcmp olt":2703,"call void <@ID>(i32 <INT>, i32 <INT>, i32 <INT>":2704,"## x i8]* <@ID>, i32 <INT>, i32 <INT>), i8* getelementptr inbounds ([12 x i8], [12 x i8]* <@ID>, i32 <INT>, i32 <INT>)":2705,"<%ID> = getelementptr inbounds [16 x i8*], [16 x i8*]* <%ID>, i64 <INT>, i64 <INT>":2706,"##* <@ID>)":2707,"<%ID> = shl nsw i32 <%ID>, <INT>":2708,"<%ID> = load i8**, i8*** <%ID>, align 8":2709,"<%ID> = extractelement":2710,"## i16*":2711,"br i1 false, label <%ID>, label <%ID>":2712,"##[512 x { double, double }":2713,"<%ID> = bitcast { double, double }* <%ID> to { double, double }*":2714,"store i8* getelementptr inbounds ([8 x i8], [8 x i8]* <@ID>, i32 <INT>, i32 <INT>), i8** <%ID>, align 8":2715,"<@ID> = external global [103 x ":2716,"##1 x i8] c\"":2717,"##, i32 ":2718,"<%ID> = icmp slt i32 <INT>, <%ID>":2719,"##3, align 4":2720,"<%ID> = load { i32, i64 }*, { i32, i64 }** <%ID>, align 8":2721,"store i32* <%ID>, i32** <%ID>":2722,"##* <%ID>, i32 <INT>)":2723,"##0 x i8], [5":2724,"##0 x i8], [50":2725,"<@ID> = private unnamed_addr constant [33 x i8]  <STRING>, align 1":2726,"store <4 x i32> <i32 <INT>, i32 <INT>, i32 <INT>, i32 <INT>>, <4 x i32>* bitcast (i32* getelementptr inbounds ([6 x [":2727,"call void <@ID>(i32* getelementptr inbounds ([8800 x i32], [8800 x i32]* <@ID>, i32 <INT>, i32 <INT>)":2728,"##* <%ID>, align 2":2729,"store i8* getelementptr inbounds ([7 x i8], [7 x i8]* <@ID>, i32 <INT>, i32 <INT>), i8** <%ID>, align 8":2730,"<LABEL>: ; preds = { <LABEL>*, <LABEL>*, i32 }2":2731,"##5, align 8":2732,"<%ID> = getelementptr inbounds { [512 x i8], i32, i32, i32, i32, i32, i32, i32, i32, i32, i32, i32, i32, i32, i32, i64, i64, i32, i32, i32, i8*, i32*, { { <%ID>*, <%ID>*, i32, [1 x i64] }, { <%ID>*, <%ID>*, i32, [1 x i64] }*, i32, i32, i32, i32, i32, i32, i32, i32, i32, i32, i32*, { <%ID>*, <%ID>*, i32, [1 x i64] }**, i8* }*, i32, { i32, i64, i32, i32 }*, [512 x i8], [512 x i8], [512 x i8], [512 x i8], [512 x i8], [512 x i8], [512 x i8], <%ID>*, <%ID>*, <%ID>*, <%ID>*, <%ID>*, <%ID>*, <%ID>*, [4 x i64], [20 x i32], [4 x i64], [4 x i64], { i32, i32, i32, i64 }*, { i32, i32, i32 }*, i32, i32, i32, i32, i32, i32, i64, i32, i32, i32, i32 }, ":2733,"store i32 { { <%ID>*, <%ID>*, i32, [1 x i64] }, { <%ID>*, <%ID>*, i32, [1 x i64] }*, i32, i32, i32, i32, i32, i32, i32, i32, i32, i32, i32*, { <%ID>*, <%ID>*, i32, [1 x i64] }**, i8* }":2734,"##* <%ID> to i32*":2735,"##, i8* getelementptr inbounds ([15 x i8], [15":2736,"<@ID> = external global [6 x [4 x i32]], align 16":2737,"##3, label { <%ID>*, <%ID>*, i32 }":2738,"##[5 x [5 x double]]* <%ID>)":2739,"<%ID> = call i32 (i8*, ...) <@ID>(i8* getelementptr inbounds ([24 x i8], [24 x i8]* <@ID>, i32 <INT>, i32 <INT>))":2740,"<LABEL>: ; preds = <LABEL>, <LABEL>, <LABEL>, <LABEL>, <LABEL>, <LABEL>, <LABEL>, <LABEL>":2741,"<%ID> = load { i64*, i64*, i64 }*":2742,"<%ID> = load { i64*, i64*, i64 }**, ":2743,"<%ID> = fcmp olt double <%ID>, <%ID>":2744,"## x i32], [70400 x i32]* <@ID>, i64 <INT>, i64 <%ID>":2745,"##, i64* { <%ID>*, <%ID>*, i32 }":2746,"##* getelementptr inbounds ([8":2747,"<%ID> = getelementptr inbounds [70400 x i32], [70400 x i32]* <@ID>, i64 <INT>, i64 <%ID>":2748,"##* <%ID>, i64 <%ID>, i64 <INT>":2749,"<%ID> = phi { [512 x i8], i32, i32, i32, i32, i32, i32, i32, i32, i32, i32, i32, i32, i32, i32, i64, i64, i32, i32, i32, i8*, i32*, { { opaque*, opaque*, i32, [1 x i64] }, { opaque*, opaque*, i32, [1 x i64] }*, i32, i32, i32, i32, i32, i32, i32, i32, i32, i32, i32*, { opaque*, opaque*, i32, [1 x i64] }**, i8* }*, i32, { i32, i64, i32, i32 }*, [512 x i8], [512 x i8], [512 x i8], [512 x i8], [512 x i8], [512 x i8], [512 x i8], opaque*, opaque*, opaque*, opaque*, opaque*, opaque*, opaque*, [4 x i64], [20 x i32], [4 x i64], [4 x i64], { i32, i32, i32, i64 }*, { i32, i32, i32 }*, i32, i32, i32, i32, i32, i32, i64, i32, i32, i32, i32 }* [ <%ID>, <%ID> ], [ <%ID>, <%ID> ]":2750,"<%ID> = call i32 (i8*, i8*, ...) <@ID>(i8* <%ID>, i8* getelementptr inbounds ([":2751,"##[103 x [5 x double]]*, ":2752,"<%ID> = load [103 x [5 x double]]*, ":2753,"##** <%ID> to i8*":2754,"## <2 x i64>":2755,"## <%ID>, { <%ID>*, <%ID>*, i32 }":2756,"##[3 x [5 x [5 x double]]]], [103 x [3 x [5 x [5 x double]]]]":2757,"## cmp":2758,"##<@ID>":2759,"## cmp<@ID>":2760,"## cmp<@ID>, align 1":2761,"##896 x { double, double }":2762,"## x i32]* <@ID>, i64 <INT>, i64 <INT>), align 16":2763,"##4 x double]* <%ID>, i64 <INT>, i64 <INT>":2764,"##3 x i8], [33":2765,"##]], align 16":2766,"##, { double, double }* getelementptr inbounds ([2":2767,"##], [256 x [256 x [513 x { double, double }]]":2768,"##56 x [256 x [513 x { double, double }]]], [256 x [256 x [513 x { double, double }]]":2769,"##, { double, double }* getelementptr inbounds ([256 x [256 x [513 x { double, double }]]], [256 x [256 x [513 x { double, double }]]":2770,"## x i8]* <@ID>, i64 <INT>, i64 <INT>), double <%ID>)":2771,"store [103 x [5 x double]]":2772,"<%ID> = call { i32, i8*, i8*, i8*, i8*, i8*, i8*, i8*, i8*, i8*, i8*, i8*, { opaque*, opaque*, i32 }*, opaque*, i32, i32, i64, i16, i8, [1 x i8], i8*, i64, i8*, i8*, i8*, i8*, i64, i32, [20 x i8] }* <@ID>(i8* getelementptr inbounds ([1":2773,"<%ID> = bitcast [5 x double]* <%ID> to double*":2774,"<@ID> = external global [102 x [103 x [5 x [5 x double]]]], align 16":2775,"<%ID> = icmp ule":2776,"store i8* getelementptr inbounds ([6 x i8], [6 x i8]* <@ID>, i32 <INT>, i32 <INT>), i8** <%ID>, align 8":2777,"<%ID> = tail call i32 (i8*, ...) <@ID>(i8* getelementptr inbounds ([3":2778,"<%ID> = getelementptr inbounds [8 x double], [8 x double]* <%ID>, i32 <INT>, i32 <INT>":2779,"##3107":2780,"<%ID> = call double <@ID>(double* <%ID>, double <%ID>)":2781,"##[13 x double]], [5 x [13 x double]]* <@ID>, i64 <INT>, i64 <INT>, i64 <INT>) to <2 x double>*)":2782,"##1 x i8], [11 x i8]* <@ID>, i32 <INT>, i32 <INT>))":2783,"##70400 x [8 x [2 x i32]]":2784,"<%ID> = tail call i32 (i8*, ...) <@ID>(i8* getelementptr inbounds ([2":2785,"store [103 x [5 x double]]* <%ID>, ":2786,"store [102 x [103 x [103 x [5 x double]]]]":2787,"<%ID> = getelementptr inbounds [4 x double], [4 x double]* <%ID>, i64 <INT>, i64 <INT>":2788,"##6 x double], [16":2789,"store double <FLOAT>, double* getelementptr inbounds ([5 x double], [5 x double]* <@ID>, i64 <INT>, i64 <INT>), align 16":2790,"<LABEL>: ; preds = { <LABEL>*, <LABEL>*, i32 }3":2791,"##{ i32, i32, i64, i32, i64, double }*, ":2792,"##* getelementptr inbounds ([103 x [103 x [5 x double]]], [103 x [103 x [5 x double]]]":2793,"<%ID> = call i32 ({ i32, i8*, i8*, i8*, i8*, i8*, i8*, i8*, i8*, i8*, i8*, i8*, { opaque*, opaque*, i32 }*, opaque*, i32, i32, i64, i16, i8, [1 x i8], i8*, i64, i8*, i8*, i8*, i8*, i64, i32, [20 x i8] }*, i8*, ...) <@ID>({ i32, i8*, i8*, i8*, i8*, i8*, i8*, i8*, i8*, i8*, i8*, i8*, { opaque*, opaque*, i32 }*, opaque*, i32, i32, i64, i16, i8, [1 x i8], i8*, i64, i8*, i8*, i8*, i8*, i64, i32, [20 x i8] }* <%ID>, i8* getelementptr inbounds ([3 x i8], [3":2794,"<@ID> = global i64 <INT>, align 8":2795,"<@ID> = external global [5 x double], align 16":2796,"<%ID> = getelementptr inbounds [16 x double], [16":2797,"##{ i32, i32, i64, i32, i64, double }** <%ID>, align 8":2798,"##4, align 8":2799,"##* <%ID>, i8*":2800,"<%ID> = load [103 x [5 x double]]*, [103 x [5 x double]]** <%ID>":2801,"<%ID> = load { i64*, i64*, i64 }**, { i64*, i64*, i64 }*** <%ID>, align 8":2802,"## x i8]* <@ID>, i32 <INT>, i32 <INT>), i32 <%ID>, double <%ID>, double <%ID>, double <%ID>)":2803,"##4 x i32], align 16":2804,"##* <%ID>, i32* <%ID>, i32":2805,"<@ID> = private unnamed_addr constant [21 x i8] c\"":2806,"<%ID> = getelementptr inbounds [134217728 x i32], [134217728":2807,"<%ID> = phi [5 x [5 x double]]":2808,"##5, align 4":2809,"## x i8]* <@ID>, i32 <INT>, i32 <INT>), i8* getelementptr inbounds ([15 x i8], [15":2810,"##, label { <%ID>*, <%ID>*, i32, [1 x i64] }":2811,"<%ID> = call i32 ({ i32, i8*, i8*, i8*, i8*, i8*, i8*, i8*, i8*, i8*, i8*, i8*, { opaque*, opaque*, i32 }*, opaque*, i32, i32, i64, i16, i8, [1 x i8], i8*, i64, i8*, i8*, i8*, i8*, i64, i32, [20 x i8] }*, i8*, ...) <@ID>({ i32, i8*, i8*, i8*, i8*, i8*, i8*, i8*, i8*, i8*, i8*, i8*, { opaque*, opaque*, i32 }*, opaque*, i32, i32, i64, i16, i8, [1 x i8], i8*, i64, i8*, i8*, i8*, i8*, i64, i32, [20 x i8] }* <%ID>, i8* getelementptr inbounds ([17 x i8], [17":2812,"<@ID> = global [5 x i32] [i32 <INT>, i32 <INT>, i32 <INT>, i32 <INT>, i32 <INT>], align 16":2813,"##* <%ID>, i8* getelementptr inbounds ([7 x i8], [7 x i8]* <@ID>, i32 <INT>, i32 <INT>))":2814,"<%ID> = call i8* <@ID>(i8* <%ID>, i8* getelementptr inbounds ([7 x i8], [7 x i8]* <@ID>, i32 <INT>, i32 <INT>))":2815,"call void <@ID>(i32 <INT>, double":2816,"<%ID> = getelementptr inbounds [134217728 x i32], [134217728 x i32]* <@ID>, i64 <INT>, i64 <%ID>":2817,"<%ID> = alloca [103 x [5 x double]]*":2818,"##[5 x [5 x double]]* <%ID>, [5 x [5 x double]]* <%ID>, [5 x [5 x double]]":2819,"##{ i32, i32, i32 }*, ":2820,"##34 x i8], [34":2821,"##8, align 4":2822,"<%ID> = getelementptr inbounds [2 x [4 x i32]], [2 x [4 x i32]]* <%ID>, i64 <INT>, i64 <INT>":2823,"<%ID> = load i1":2824,"<%ID> = load i1, i1":2825,"store [103 x [5 x double]]* <%ID>, [103 x [5 x double]]** <%ID>":2826,"<%ID> = call i32 (i8*, ...) <@ID>(i8* getelementptr inbounds ([22 x i8], [2":2827,"<%ID> = load { i32, i32, i32 }*, ":2828,"store { double, double }* <%ID>, ":2829,"##, <%ID> ], [ 0, <%ID> ]":2830,"<@ID> = private unnamed_addr constant [19 x i8]  <STRING>, align 1":2831,"<%ID> = add nsw i32 <INT>, <%ID>":2832,"<%ID> = call i32 (i8*, ...) <@ID>(i8* getelementptr inbounds ([27 x i8], [27":2833,"<%ID> = icmp eq i64 <%ID>, <INT>":2834,"ret i32 <INT>":2835,"<%ID> = load double*, double** { <%ID>*, <%ID>*, i32 }":2836,"##02":2837,"##[512 x [33 x { double, double }":2838,"## i64 <INT>, <%ID>":2839,"##* getelementptr inbounds ([102 x [103 x [103 x [5 x double]]]], [102 x [103 x [103 x [5 x double]]]]* <@ID>, i64 <INT>, i64 <INT>, i64 <INT>, i64 <INT>, i64 <INT>)":2840,"<%ID> = load { i32, i32, i32 }*, { i32, i32, i32 }** <%ID>, align 8":2841,"##*), <%ID> ]":2842,"<%ID> = call double <@ID>(double <FLOAT>, double":2843,"<%ID> = and i32 <%ID>, <INT>":2844,"##* getelementptr inbounds ([3 x i8], [3":2845,"<%ID> = bitcast i8* <%ID> to i32*":2846,"<%ID> = call i32 <@ID>(i32 <%ID>)":2847,"<%ID> = call noalias i8* <@ID>(i64 <INT>)":2848,"<%ID> = getelementptr inbounds [102 x [5 x double]], [102 x [5 x double]]* <%ID>, i64 <INT>, i64 <%ID>":2849,"##label <%ID>, label { <%ID>*, <%ID>*, i32 }":2850,"<%ID> = mul i64 <%ID>, <%ID>":2851,"<LABEL>: ; preds = { i32, i64, i32, i32 }":2852,"<%ID> = load { i32, i32, i64, i32, i64, double }*, ":2853,"<%ID> = load { i32, i32, i64, i32, i64, double }*, { i32, i32, i64, i32, i64, double }** <%ID>, align 8":2854,"<%ID> = getelementptr inbounds { i64*, i64*, i64 }*, { i64*, i64*, i64 }** <%ID>, i64 <%ID>":2855,"##[2 x double]":2856,"<%ID> = alloca { double, double }*, ":2857,"<%ID> = alloca { double, double }*, align 8":2858,"<%ID> = call i32 (i8*, ...) <@ID>(i8* getelementptr inbounds ([39 x i8], [39 x i8]* <@ID>, i32 <INT>, i32 <INT>))":2859,"<%ID> = getelementptr inbounds [103 x [5 x double]], [103 x [5 x double]]* <@ID>, i64 <INT>, i64 <%ID>, i64 <INT>":2860,"##* <%ID>, [102 x [103 x [103 x [5 x double]]]]** <%ID>":2861,"store [102 x [103 x [103 x [5 x double]]]]* <%ID>, [102 x [103 x [103 x [5 x double]]]]** <%ID>":2862,"define void <@ID>({ i32, i8*, i8*, i8*, i8*, i8*, i8*, i8*, i8*, i8*, i8*, i8*, { opaque*, opaque*, i32 }*, opaque*, i32, i32, i64, i16, i8, [1 x i8], i8*, i64, i8*, i8*, i8*, i8*, i64, i32, [20 x i8] }* <%ID>":2863,"##* null, ":2864,"store i32 <INT>, i32* getelementptr inbounds ([3 x [2 x [4 x i32]]], [3 x [2 x [4 x i32]]]* <@ID>, i64 <INT>, i64 <INT>, i64 <INT>, i64 <INT>), align 4":2865,"<%ID> = and i32 <%ID>, <%ID>":2866,"store i8* getelementptr inbounds ([4 x i8], [4 x i8]* <@ID>, i32 <INT>, i32 <INT>), i8** <%ID>, align 8":2867,"<%ID> = call i32 (i8*, ...) <@ID>(i8* getelementptr inbounds ([20 x i8], [20":2868,"<@ID> = external global [103 x [103 x [5 x double]]], align 16":2869,"##, { [512 x i8], i32, i32, i32, i32, i32, i32, i32, i32, i32, i32, i32, i32, i32, i32, i64, i64, i32, i32, i32, i8*, i32*, { { <LABEL>*, <LABEL>*, i32, [1 x i64] }, { <LABEL>*, <LABEL>*, i32, [1 x i64] }*, i32, i32, i32, i32, i32, i32, i32, i32, i32, i32, i32*, { <LABEL>*, <LABEL>*, i32, [1 x i64] }**, i8* }*, i32, { i32, i64, i32, i32 }*, [512 x i8], [512 x i8], [512 x i8], [512 x i8], [512 x i8], [512 x i8], [512 x i8], <LABEL>*, <LABEL>*, <LABEL>*, <LABEL>*, <LABEL>*, <LABEL>*, <LABEL>*, [4 x i64], [20 x i32], [4 x i64], [4 x i64], { i32, i32, i32, i64 }*, { i32, i32, i32 }*, i32, i32, i32, i32, i32, i32, i64, i32, i32, i32, i32 }":2870,"## undef, <%ID> ]":2871,"##8800 x [6 x i32]], align 16":2872,"##, i8* <%ID>, i8* <%ID>, i8* <%ID>, i8* <%ID>)":2873,"##, i8* <%ID>, i8* <%ID>, i8* <%ID>, i8* <%ID>, i8* <%ID>)":2874,"##36 x i8], [36":2875,"define void <@ID>(i8* <%ID>, i8 signext <%ID>, i32 <%ID>, i32 <%ID>, i32 <%ID>, i32 <%ID>, double <%ID>, double <%ID>, i8* <%ID>, i32 <%ID>, i8* <%ID>, i8* <%ID>, i8* <%ID>, i8* <%ID>, i8* <%ID>, i8* <%ID>, i8* <%ID>, i8* <%ID>)":2876,"define void <@ID>(i8* <%ID>, i8 signext <%ID>, i32 <%ID>, i32 <%ID>, i32 <%ID>, i32 <%ID>, double <%ID>, double <%ID>, i8* <%ID>, i32 <%ID>, i8* <%ID>, i8* <%ID>, i8* <%ID>, i8* <%ID>, i8* <%ID>, i8* <%ID>, i8* <%ID>, i8* <%ID>, i8* <%ID>)":2877,"define double <@ID>(i32 <%ID>)":2878,"##* getelementptr inbounds ([75002 x double], [75002 x double]* <@ID>, i32 <INT>, i32 <INT>), double":2879,"##* null)":2880,"##{ i32, i32 }* null)":2881,"store i32 <INT>, i32* getelementptr inbounds ([6 x [8 x i32]], [6 x [8 x i32]]* <@ID>, i64 <INT>, i64 <INT>, i64 <INT>), align 16":2882,"<%ID> = getelementptr inbounds [2 x [3 x [5 x double]]], [2 x [3 x [5 x double]]]* <%ID>, i64 <INT>, i64 <INT>":2883,"<%ID> = alloca i32*":2884,"<@ID> = private unnamed_addr constant [31 x i8]  <STRING>, align 1":2885,"<@ID> = private unnamed_addr constant [16 x i8]  <STRING>, align 1":2886,"store i32 <INT>, i32* getelementptr inbounds ([6 x [8 x i32]], [6 x [8 x i32]]* <@ID>, i64 <INT>, i64 <INT>, i64 <INT>), align 8":2887,"<%ID> = getelementptr inbounds [5 x [5 x [5 x double]]], [5 x [5 x [5 x double]]]* <%ID>, i64 <INT>":2888,"store <2 x double> <double <FLOAT>, double <FLOAT>>, <2 x double>* bitcast (double* getelementptr inbounds ([5 x [13 x double]], [5 x [13 x double]]* <@ID>, i64 <INT>, i64 <INT>, i64 <INT>) to <2 x double>*)":2889,"br label { <%ID>*, <%ID>*, i32 }1":2890,"##double]* getelementptr inbounds ([2 x [5 x [3 x double]]], [2 x [5 x [3 x double]]]":2891,"##* <@ID>, i64 <INT>, i64 <INT>, i64 <INT>), i64 <INT>, i64 <%ID>":2892,"<%ID> = getelementptr inbounds [3 x double], [3 x double]* getelementptr inbounds ([2 x [5 x [3 x double]]], [2 x [5 x [3 x double]]]":2893,"<%ID> = getelementptr inbounds [3 x double], [3 x double]* getelementptr inbounds ([2 x [5 x [3 x double]]], [2 x [5 x [3 x double]]]* <@ID>, i64 <INT>, i64 <INT>, i64 <INT>), i64 <INT>, i64 <%ID>":2894,"<%ID> = alloca { i64, i64 }, align 8":2895,"store { double, double }* <%ID>, { double, double }** <%ID>, align 8":2896,"<%ID> = alloca [28 x i32], align 16":2897,"<LABEL>: ; preds = { i32, i32, i32, i64, i32, i8*, i8 }":2898,"store i32 <INT>, i32* getelementptr inbounds ([12 x [6 x i32]], [12 x [6 x i32]]* <@ID>, i64 <INT>, i64 <INT>, i64 <INT>), align 16":2899,"call void <@ID>(i8* getelementptr inbounds ([3 x i8], [3":2900,"##, { double, double }* getelementptr inbounds ([256 x [256 x [513 x { double, double }]]], [256 x [256 x [513 x { double, double }]]]* <@ID>, i32 <INT>, i32 <INT>, i32 <INT>, i32 <INT>)":2901,"##], [11":2902,"## x i8*], [11":2903,"##* <%ID>, double* <%ID>, double":2904,"<LABEL>: ; preds = <LABEL>, <LABEL>, <LABEL>, <LABEL>, <LABEL>":2905,"<%ID> = icmp ule i32 <%ID>, <%ID>":2906,"##, label { <%ID>*, <%ID>*, i32 }6":2907,"<%ID> = phi i32* [ <%ID>, <%ID> ], [ <%ID>, <%ID> ]":2908,"## <%ID>, double* nonnull <%ID>)":2909,"## x i8*], [10":2910,"<@ID> = private unnamed_addr constant [195 x i8]  <STRING>, align 1":2911,"<%ID> = ash":2912,"##6, align 4":2913,"<%ID> = phi [5 x double]":2914,"<%ID> = getelementptr inbounds [11 x i8*], [11":2915,"##* [ <%ID>, <%ID> ], [ bitcast (double":2916,"##, label { <%ID>*, <%ID>*, i32 }9":2917,"##75000":2918,"<@ID> = private unnamed_addr constant [21 x i8] c\" cmp<@ID>, align 1":2919,"<%ID> = getelementptr inbounds [10 x i8*], [10":2920,"##[103 x [103 x [5 x double]]]*":2921,"<%ID> = icmp ne i8":2922,"<%ID> = load [102 x [103 x [103 x [5 x double]]]]":2923,"<%ID> = load [102 x [103 x [103 x [5 x double]]]]*, ":2924,"<%ID> = load [5 x double]*, [5 x double]** <%ID>":2925,"call void <@ID>(i8* bitcast ([155501232 x double]* <@ID> to i8*)":2926,"store { i32, i8*, i8*, i8*, i8*, i8*, i8*, i8*, i8*, i8*, i8*, i8*, { <%ID>*, <%ID>*, i32 }*, <%ID>*, i32, i32, i64, i16, i8, [1 x i8], i8*, i64, i8*, i8*, i8*, i8*, i64, i32, [20 x i8] }":2927,"##3 x i8], [13 x i8]* <@ID>, i32 <INT>, i32 <INT>))":2928,"<%ID> = getelementptr inbounds [14 x i32], [1":2929,"<%ID> = icmp ne i8* <%ID>, null":2930,"##2 x i8]* <@ID>, i64 <INT>, i64 <INT>)":2931,"##7, align 8":2932,"br label { <%ID>*, <%ID>*, i32 }6":2933,"##* <%ID>, [5 x [5 x double]]* <%ID>)":2934,"<%ID> = getelementptr inbounds [49 x i8], [49 x i8]* <%ID>, i64 <INT>, i64 <INT>":2935,"<@ID> = common global [6 x [":2936,"##6 x i8], [46 x i8]* <@ID>, i32 <INT>, i32 <INT>), i32 <%ID>)":2937,"<%ID> = phi i32 [ 2":2938,"<%ID> = load i8, i8* <@ID>, align 1":2939,"br label { <%ID>*, <%ID>*, i32, [1 x i64] }":2940,"store double* <%ID>, double** <%ID>":2941,"##* <%ID>, i8* <%ID>":2942,"<%ID> = getelementptr inbounds [12 x double], [12 x double]* <%ID>, i64 <INT>, i64 <INT>":2943,"## x i64]* <@ID>, i32 <INT>, i32 <INT>)":2944,"##* getelementptr inbounds ([103 x [3 x [5 x [5 x double]]]], [103 x [3 x [5 x [5 x double]]]]":2945,"<%ID> = load i8, i8":2946,"##{ { <%ID>*, <%ID>*, i32, [1 x i64] }, { <%ID>*, <%ID>*, i32, [1 x i64] }*, i32, i32, i32, i32, i32, i32, i32, i32, i32, i32, i32*, { <%ID>*, <%ID>*, i32, [1 x i64] }**, i8*":2947,"<%ID> = load [102 x [103 x [103 x [5 x double]]]]*, [102 x [103 x [103 x [5 x double]]]]** <%ID>":2948,"##2 x [5 x [3 x double]]":2949,"<%ID> = getelementptr [5 x [5 x double]], [5 x [5 x double]]":2950,"<%ID> = getelementptr double, double":2951,"<@ID> = private unnamed_addr constant [26 x i8]  <STRING>, align 1":2952,"##608":2953,"##388":2954,"##388608":2955,"<%ID> = udiv":2956,"<@ID> = external global [8800 x [6 x i32]], align 16":2957,"##* getelementptr inbounds ([102 x [103 x [5 x [5 x double]]]], [102 x [103 x [5 x [5 x double]]]]":2958,"store i8* getelementptr inbounds ([5 x i8], [5 x i8]* <@ID>, i32 <INT>, i32 <INT>), i8** <%ID>, align 16":2959,"##48":2960,"##* getelementptr inbounds ([102 x [5 x double]], [102 x [5 x double]]":2961,"##, i8* getelementptr inbounds ([25 x i8], [25":2962,"<LABEL>: ; preds = { i32, i32, i32, i64 }":2963,"##8 x i8], [8 x i8]* <@ID>, i32 <INT>, i32 <INT>), double <%ID>)":2964,"##[5 x [5 x [5 x double]]]** <%ID>, align 8":2965,"store <2 x double> <double <FLOAT>, double <FLOAT>>, <2 x double>* <%ID>, align 8":2966,"## [102 x [103 x [103 x [5 x double]]]] zeroinitializer, align 16":2967,"<%ID> = call noalias i8* <@ID>(i64 <%ID>)":2968,"<%ID> = alloca [5 x [5 x double]], align 16":2969,"<%ID> = getelementptr inbounds [2 x double], [2 x double]":2970,"define internal ":2971,"##{ [512 x i8], i32, i32, i32, i32, i32, i32, i32, i32, i32, i32, i32, i32, i32, i32, i64, i64, i32, i32, i32, i8*, i32*, { { opaque*, opaque*, i32, [1 x i64] }, { opaque*, opaque*, i32, [1 x i64] }*, i32, i32, i32, i32, i32, i32, i32, i32, i32, i32, i32*, { opaque*, opaque*, i32, [1 x i64] }**, i8* }*, i32, { i32, i64, i32, i32 }*, [512 x i8], [512 x i8], [512 x i8], [512 x i8], [512 x i8], [512 x i8], [512 x i8], opaque*, opaque*, opaque*, opaque*, opaque*, opaque*, opaque*, [4 x i64], [20 x i32], [4 x i64], [4 x i64], { i32, i32, i32, i64 }*, { i32, i32, i32 }*, i32, i32, i32, i32, i32, i32, i64, i32, i32, i32, i32 }* <%ID>, { opaque*, opaque*, i32, [1 x i64] }":2972,"##, { { <LABEL>*, <LABEL>*, i32, [1 x i64] }, { <LABEL>*, <LABEL>*, i32, [1 x i64] }*, i32, i32, i32, i32, i32, i32, i32, i32, i32, i32, i32*, { <LABEL>*, <LABEL>*, i32, [1 x i64] }**, i8* }":2973,"<%ID> = load { i32, i8*, i8*, i8*, i8*, i8*, i8*, i8*, i8*, i8*, i8*, i8*, { <%ID>*, <%ID>*, i32 }*, <%ID>*, i32, i32, i64, i16, i8, [1 x i8], i8*, i64, i8*, i8*, i8*, i8*, i64, i32, [20 x i8] }*, { i32, i8*, i8*, i8*, i8*, i8*, i8*, i8*, i8*, i8*, i8*, i8*, { <%ID>*, <%ID>*, i32 }*, <%ID>*, i32, i32, i64, i16, i8, [1 x i8], i8*, i64, i8*, i8*, i8*, i8*, i64, i32, [20 x i8] }** <%ID>, align 8":2974,"##6 x i8], [36":2975,"<LABEL>: ; preds = <LABEL>, <LABEL>, <LABEL>, <LABEL>, <LABEL>, <LABEL>":2976,"## x i8]* <@ID>, i32 <INT>, i32 <INT>), i8* getelementptr inbounds ([36 x i8], [36":2977,"## x i8]* <@ID>, i32 <INT>, i32 <INT>), i8* getelementptr inbounds ([7 x i8], [7 x i8]* <@ID>, i32 <INT>, i32 <INT>), i8* getelementptr inbounds ([7 x i8], [7 x i8]* <@ID>, i32 <INT>, i32 <INT>), i8* getelementptr inbounds ([36 x i8], [36":2978,"##, i8* getelementptr inbounds ([6 x i8], [6 x i8]* <@ID>, i32 <INT>, i32 <INT>), i8* getelementptr inbounds ([12 x i8], [12 x i8]* <@ID>, i32 <INT>, i32 <INT>)":2979,"##, i8* getelementptr inbounds ([15 x i8], [15 x i8]* <@ID>, i32 <INT>, i32 <INT>), i8* getelementptr inbounds ([15 x i8], [15":2980,"##, i8* getelementptr inbounds ([6 x i8], [6 x i8]* <@ID>, i32 <INT>, i32 <INT>), i8* getelementptr inbounds ([12 x i8], [12 x i8]* <@ID>, i32 <INT>, i32 <INT>), i8* getelementptr inbounds ([15 x i8], [15 x i8]* <@ID>, i32 <INT>, i32 <INT>), i8* getelementptr inbounds ([15 x i8], [15":2981,"##, i8* getelementptr inbounds ([6 x i8], [6 x i8]* <@ID>, i32 <INT>, i32 <INT>), i8* getelementptr inbounds ([12 x i8], [12 x i8]* <@ID>, i32 <INT>, i32 <INT>), i8* getelementptr inbounds ([15 x i8], [15 x i8]* <@ID>, i32 <INT>, i32 <INT>), i8* getelementptr inbounds ([15 x i8], [15 x i8]* <@ID>, i32 <INT>, i32 <INT>), i8* getelementptr inbounds ([7 x i8], [7 x i8]* <@ID>, i32 <INT>, i32 <INT>), i8* getelementptr inbounds ([7 x i8], [7 x i8]* <@ID>, i32 <INT>, i32 <INT>), i8* getelementptr inbounds ([36 x i8], [36":2982,"##* { <%ID>*, <%ID>*, i32, [1 x i64] }":2983,"<%ID> = load i32, i32* <%ID>, align 1":2984,"<%ID> = getelementptr inbounds i8, i8* <%ID>, i32 <INT>":2985,"<%ID> = getelementptr inbounds [2 x i32], [2 x i32]* <@ID>, i64 <INT>, i64 <%ID>":2986,"br i1 { [512 x i8], i32, i32, i32, i32, i32, i32, i32, i32, i32, i32, i32, i32, i32, i32, i64, i64, i32, i32, i32, i8*, i32*, { { <%ID>*, <%ID>*, i32, [1 x i64] }, { <%ID>*, <%ID>*, i32, [1 x i64] }*, i32, i32, i32, i32, i32, i32, i32, i32, i32, i32, i32*, { <%ID>*, <%ID>*, i32, [1 x i64] }**, i8* }*, i32, { i32, i64, i32, i32 }*, [512 x i8], [512 x i8], [512 x i8], [512 x i8], [512 x i8], [512 x i8], [512 x i8], <%ID>*, <%ID>*, <%ID>*, <%ID>*, <%ID>*, <%ID>*, <%ID>*, [4 x i64], [20 x i32], [4 x i64], [4 x i64], { i32, i32, i32, i64 }*, { i32, i32, i32 }*, i32, i32, i32, i32, i32, i32, i64, i32, i32, i32, i32 }":2987,"##06":2988,"##* getelementptr inbounds ([103 x [5 x double]], [103 x [5 x double]]":2989,"<%ID> = getelementptr inbounds [8800 x [6 x [2 x [2 x [5 x [5 x i32]]]]]], [8800 x [6 x [2 x [2 x [5 x [5 x i32]]]]]]* <@ID>, i64 <INT>, i64 <%ID>, i64 <%ID>":2990,"##6 x i8], [16":2991,"##ele":2992,"##t i1":2993,"##ct i1":2994,"<%ID> = sele":2995,"<%ID> = select i1":2996,"##8800 x [8 x double]]":2997,"##* { i32, i8*, i8*, i8*, i8*, i8*, i8*, i8*, i8*, i8*, i8*, i8*, { <%ID>*, <%ID>*, i32 }*, <%ID>*, i32, i32, i64, i16, i8, [1 x i8], i8*, i64, i8*, i8*, i8*, i8*, i64, i32, [20 x i8] }, ":2998,"##* getelementptr inbounds ([5 x [5 x double]], [5 x [5 x double]]":2999,"call void <@ID>(i32 <%ID>, i32 <%ID>, i32 <%ID>, i32":3000,"## <%ID>, [4 x i32]":3001,"<%ID> = bitcast i64 <%ID> to double":3002,"define void <@ID>(i32 <%ID>, double":3003,"call void <@ID>(i8* getelementptr inbounds ([3 x i8], [3 x i8]* <@ID>, i32 <INT>, i32 <INT>)":3004,"##95 x i8]* <@ID>, i32 <INT>, i32 <INT>))":3005,"##95 x i8], [1":3006,"<%ID> = call i32 (i8*, ...) <@ID>(i8* getelementptr inbounds ([37 x i8], [37 x i8]* <@ID>, i32 <INT>, i32 <INT>), double <%ID>)":3007,"<%ID> = call i32 (i8*, ...) <@ID>(i8* getelementptr inbounds ([195 x i8], [1":3008,"<%ID> = call i32 (i8*, ...) <@ID>(i8* getelementptr inbounds ([37 x i8], [37 x i8]* <@ID>, i32 <INT>, i32 <INT>), i8* getelementptr inbounds ([11 x i8], [11 x i8]* <@ID>, i32 <INT>, i32 <INT>))":3009,"<%ID> = call i32 (i8*, ...) <@ID>(i8* getelementptr inbounds ([37 x i8], [37 x i8]* <@ID>, i32 <INT>, i32 <INT>), i8* getelementptr inbounds ([13 x i8], [13 x i8]* <@ID>, i32 <INT>, i32 <INT>))":3010,"<%ID> = call i32 (i8*, ...) <@ID>(i8* getelementptr inbounds ([42 x i8], [42 x i8]* <@ID>, i32 <INT>, i32 <INT>), i8* <%ID>)":3011,"<%ID> = call i32 (i8*, ...) <@ID>(i8* getelementptr inbounds ([40 x i8], [40 x i8]* <@ID>, i32 <INT>, i32 <INT>), double <%ID>)":3012,"<%ID> = call i32 (i8*, ...) <@ID>(i8* getelementptr inbounds ([195 x i8], [195 x i8]* <@ID>, i32 <INT>, i32 <INT>))":3013,"<%ID> = call double <@ID>(double <FLOAT>, double <%ID>)":3014,"<%ID> = phi i64 [ 0":3015,"<%ID> = alloca [515":3016,"<%ID> = alloca [515 x double], align 16":3017,"<%ID> = getelementptr inbounds [26 x { double, double }], [26 x { double, double }]* <%ID>, i64 <INT>, i64 <%ID>":3018,"##* <%ID>, i64 <%ID>, i64 <INT>, { i32, i8*, i8*, i8*, i8*, i8*, i8*, i8*, i8*, i8*, i8*, i8*, { opaque*, opaque*, i32 }*, opaque*, i32, i32, i64, i16, i8, [1 x i8], i8*, i64, i8*, i8*, i8*, i8*, i64, i32, [20 x i8] }* <%ID>)":3019,"##01":3020,"##{ i64*, i64*, i64 }* <%ID>, ":3021,"## x i8]* <@ID>, i32 <INT>, i32 <INT>), i32 <%ID>":3022,"<%ID> = getelementptr inbounds [11 x i8*], [11 x i8*]* <%ID>, i64 <INT>, i64 <INT>":3023,"##, label { <%ID>*, <%ID>*, i32 }7":3024,"<%ID> = icmp ugt i32 <%ID>, <%ID>":3025,"## x i8]* <@ID>, i64 <INT>, i64 <INT>), i8* getelementptr inbounds ([":3026,"call void <@ID>(double* getelementptr inbounds ([8800 x [5 x [5 x [5 x double]]]], [8800 x [5 x [5 x [5 x double]]]]* <@ID>, i32 <INT>, i32 <INT>, i32 <INT>, i32 <INT>, i32 <INT>)":3027,"##* <%ID>, i32* <%ID>, i32 <%ID>)":3028,"##{ i32, i32, i32 }* <%ID>, i64 <%ID>":3029,"<%ID> = getelementptr inbounds { i32, i32, i32 }, { i32, i32, i32 }* <%ID>, i64 <%ID>":3030,"## align 8 <%ID>, i64 <INT>, i1 false)":3031,"##nonnull align 8 <%ID>, i64 <INT>, i1 false)":3032,"##align 8 <%ID>, i8* nonnull align 8 <%ID>, i64 <INT>, i1 false)":3033,"<%ID> = load [5 x [5 x [5 x double]]]":3034,"<%ID> = load [5 x [5 x [5 x double]]]*, ":3035,"<%ID> = call i32 (i8*, ...) <@ID>(i8* getelementptr inbounds ([34 x i8], [34 x i8]* <@ID>, i32 <INT>, i32 <INT>))":3036,"store double <%ID>, double* <%ID>, align 1":3037,"<%ID> = alloca double*":3038,"##6 x i8], [2":3039,"##6 x i8], [26":3040,"##[5 x [5 x double]]* <%ID>, [5 x [5 x double]]* <%ID>, [5 x [5 x double]]* <%ID>)":3041,"##{ i32, i8*, i8*, i8*, i8*, i8*, i8*, i8*, i8*, i8*, i8*, i8*, { <%ID>*, <%ID>*, i32 }*, <%ID>*, i32, i32, i64, i16, i8, [1 x i8], i8*, i64, i8*, i8*, i8*, i8*, i64, i32, [20 x i8] }* <%ID>)":3042,"<@ID> = external local_unnamed_addr global ":3043,"<%ID> = alloca [102 x [103 x [103 x [5 x double]]]]":3044,"##[5 x [5 x double]]*":3045,"<%ID> = getelementptr inbounds [10 x i8*], [10 x i8*]* <%ID>, i64 <INT>, i64 <INT>":3046,"<%ID> = alloca [5 x double]*":3047,"##0 x i8] c\"":3048,"<%ID> = getelementptr inbounds [7 x [8":3049,"## x double]], [7 x [8":3050,"<%ID> = getelementptr inbounds [7 x [8 x double]], [7 x [8":3051,"<%ID> = getelementptr inbounds [7 x [8 x double]], [7 x [8 x double]]* <@ID>, i64 <INT>, i64 <%ID>":3052,"<%ID> = tail call i32 (i8*, ...) <@ID>(i8* getelementptr inbounds ([4":3053,"##{ i32, i32, i64, i32, i64, double }":3054,"call void <@ID>(double* getelementptr inbounds ([334600 x double], [334600 x double]* <@ID>, i32 <INT>, i32 <INT>), double":3055,"##, i32 <%ID>, i32 <%ID>, i32 <%ID>, double":3056,"##4 x i32], [4":3057,"##* getelementptr inbounds ([8 x i32], [8":3058,"## x i8], ":3059,"##3 x i32]":3060,"<%ID> = getelementptr inbounds [2 x double], [2 x double]* <%ID>, i64 <%ID>":3061,"##* { i32, i64, i32, i32 }":3062,"store [5 x double]* <%ID>, [5 x double]** <%ID>":3063,"br i1 { { <%ID>*, <%ID>*, i32, [1 x i64] }, { <%ID>*, <%ID>*, i32, [1 x i64] }*, i32, i32, i32, i32, i32, i32, i32, i32, i32, i32, i32*, { <%ID>*, <%ID>*, i32, [1 x i64] }**, i8* }":3064,"<%ID> = call i64 <@ID>(i8* <%ID>, i64 <%ID>, i64 <INT>, { i32, i8*, i8*, i8*, i8*, i8*, i8*, i8*, i8*, i8*, i8*, i8*, { opaque*, opaque*, i32 }*, opaque*, i32, i32, i64, i16, i8, [1 x i8], i8*, i64, i8*, i8*, i8*, i8*, i64, i32, [20 x i8] }* <%ID>)":3065,"##1 x i8], [3":3066,"##* <%ID>, i64 <INT>, i64 <INT>, i64 <INT>, i64 <INT>":3067,"<%ID> = phi i64 [ 0, <%ID> ], [ <%ID>, <%ID> ]":3068,"##, i8* bitcast ([155501232 x double]* <@ID> to i8*)":3069,"##int":3070,"##rto":3071,"##ptrto":3072,"##ptrtoint":3073,"##, label { <%ID>*, <%ID>*, i32 }2":3074,"<%ID> = getelementptr inbounds [8800 x [6 x i32]], [8800 x [6 x i32]]* <@ID>, i64 <INT>, i64 <%ID>, i64 <INT>":3075,"##{ i32, i32, i32 }* <%ID>, i32 <INT>, i32 <INT>":3076,"<%ID> = getelementptr inbounds { i32, i32, i32 }, { i32, i32, i32 }* <%ID>, i32 <INT>, i32 <INT>":3077,"<%ID> = load double, double* { <%ID>*, <%ID>*, i32 }":3078,"##55501232 x double], [1":3079,"<%ID> = load [5 x [5 x [5 x double]]]*, [5 x [5 x [5 x double]]]** <%ID>, align 8":3080,"## null":3081,"<%ID> = load i32, i32* getelementptr inbounds ([8 x i32], [8":3082,"##6, align 8":3083,"##, label { <%ID>*, <%ID>*, i32 }5":3084,"##* getelementptr inbounds ([14700000":3085,"<@ID> = internal unnamed_addr global":3086,"## <%ID>, i32 <%ID>, i32 <%ID>, i32 <%ID>, double":3087,"##32 x i8]  <STRING>, align 1":3088,"<@ID> = private unnamed_addr constant [32 x i8]  <STRING>, align 1":3089,"##09":3090,"call void <@ID>([5 x [5 x double]]":3091,"##05":3092,"## <%ID>, i32 <INT>":3093,"<%ID> = phi i8* [ <%ID>, <%ID> ], [ <%ID>, <%ID> ]":3094,"##55501232 x double], [155501232 x double]":3095,"##* getelementptr inbounds ([155501232 x double], [155501232 x double]":3096,"<%ID> = getelementptr inbounds [8 x [3":3097,"## x i32]], [8 x [3 x i32]]* <@ID>, i64 <INT>, i64 <%ID>":3098,"<%ID> = getelementptr inbounds [8 x [3 x i32]], [8 x [3 x i32]]* <@ID>, i64 <INT>, i64 <%ID>":3099,"store i8 <INT>, i8* <@ID>, align 1":3100,"##, i8* getelementptr inbounds ([4 x i8], [4":3101,"define i32 <@ID>(i32 <%ID>, i8*":3102,"<%ID> = alloca [102 x [103 x [103 x [5 x double]]]]*":3103,"<%ID> = getelementptr inbounds [16 x i8], [16 x i8]* <%ID>, i64 <INT>, i64 <INT>":3104,"<%ID> = getelementptr [5 x [5 x double]], [5 x [5 x double]]* <%ID>, i64 <INT>, i64 <INT>, i64 <INT>":3105,"<%ID> = call i32 (i8*, ...) <@ID>(i8* getelementptr inbounds ([36 x i8], [36":3106,"##7, align 4":3107,"##6 x i32]], align 16":3108,"##[5 x double] zeroinitializer, align 16":3109,"##[5 x [5 x double]] zeroinitializer, align 16":3110,"##[5 x [5 x double]]* getelementptr inbounds ([102 x [103 x [5 x [5 x double]]]], [102 x [103 x [5 x [5 x double]]]]":3111,"##334600 x double] zeroinitializer, align 16":3112,"##8 x [3 x i32]], align 16":3113,"##8800 x [5 x [5 x [5 x double]]]] zeroinitializer, align 16":3114,"##7 x [5 x [5 x [5 x double]]]] zeroinitializer, align 16":3115,"define double <@ID>(double":3116,"store i8*":3117,"<%ID> = call i32 (i8*, ...) <@ID>(i8* getelementptr inbounds ([50 x i8], [50":3118,"##, <%ID> ], [ 1, <%ID> ]":3119,"define internal void <@ID>(i8":3120,"<%ID> = load <2 x double>, <2 x double>":3121,"##align 1":3122,"store { opaque*, opaque*, i32, [1 x i64] }*":3123,"<@ID> = common global [102 x [103 x [103 x [5 x double]]]] zeroinitializer, align 16":3124,"<%ID> = add i64 <%ID>, <INT>":3125,"<%ID> = call i32 ({ i32, i8*, i8*, i8*, i8*, i8*, i8*, i8*, i8*, i8*, i8*, i8*, { opaque*, opaque*, i32 }*, opaque*, i32, i32, i64, i16, i8, [1 x i8], i8*, i64, i8*, i8*, i8*, i8*, i64, i32, [20 x i8] }*, i8*, ...) <@ID>({ i32, i8*, i8*, i8*, i8*, i8*, i8*, i8*, i8*, i8*, i8*, i8*, { opaque*, opaque*, i32 }*, opaque*, i32, i32, i64, i16, i8, [1 x i8], i8*, i64, i8*, i8*, i8*, i8*, i64, i32, [20 x i8] }* <%ID>, i8* getelementptr inbounds ([34 x i8], [34":3126,"<%ID> = call i32 (i8*, i8*, ...) <@ID>(i8* <%ID>, i8* getelementptr inbounds ([8 x i8], [8 x i8]* <@ID>, i32 <INT>, i32 <INT>), double <%ID>)":3127,"##, i32 <%ID>, double <FLOAT>)":3128,"define i32 <@ID>(i32 <%ID>, i8** <%ID>)":3129,"<%ID> = icmp sle i64 <%ID>, <%ID>":3130,"##val":3131,"##tval":3132,"##tvalue":3133,"<%ID> = getelementptr inbounds [28 x i32], [28 x i32]* <%ID>, i64 <INT>, i64 <INT>":3134,"define internal double <@ID>()":3135,"##double]]* <%ID>, i64 <INT>, i64 <INT>":3136,"<@ID> = private unnamed_addr constant [21 x i8]  <STRING>, align 1":3137,"<%ID> = getelementptr inbounds [102 x [5 x double]], [102 x [5 x double]]* <@ID>, i64 <INT>, i64 <%ID>, i64 <%ID>":3138,"br i1 <%ID>, label <%ID>, label { <%ID>*, <%ID>*, i32 }":3139,"call void <@ID>(i8* nonnull align 8 <%ID>, i8* nonnull align 8 <%ID>, i64 <INT>, i1 false)":3140,"<%ID> = getelementptr inbounds [16 x double], [16 x double]* <%ID>, i64 <INT>, i64 <INT>":3141,"store i8* <%ID>, i8*":3142,"##[10 x [2 x ":3143,"##{ i32, i32, i32, i64, i32, i8*, i8 }* <%ID>)":3144,"<@ID> = private unnamed_addr constant [59 x i8]  <STRING>, align 1":3145,"##04":3146,"##, i32 <%ID>, i32 <%ID>, i32 <%ID>, i32 <%ID>, i32":3147,"<%ID> = call i32 ({ i32, i8*, i8*, i8*, i8*, i8*, i8*, i8*, i8*, i8*, i8*, i8*, { opaque*, opaque*, i32 }*, opaque*, i32, i32, i64, i16, i8, [1 x i8], i8*, i64, i8*, i8*, i8*, i8*, i64, i32, [20 x i8] }*, i8*, ...) <@ID>({ i32, i8*, i8*, i8*, i8*, i8*, i8*, i8*, i8*, i8*, i8*, i8*, { opaque*, opaque*, i32 }*, opaque*, i32, i32, i64, i16, i8, [1 x i8], i8*, i64, i8*, i8*, i8*, i8*, i64, i32, [20 x i8] }* <%ID>, i8* getelementptr inbounds ([28 x i8], [28":3148,"<%ID> = phi i1":3149,"##, label { i32, i64, i32, i32 }":3150,"<%ID> = call i32 (i8*, ...) <@ID>(i8* getelementptr inbounds ([42 x i8], [42 x i8]* <@ID>, i32 <INT>, i32 <INT>), i32 <%ID>, i32 <%ID>, i32 <%ID>)":3151,"<%ID> = call i32 (i8*, ...) <@ID>(i8* getelementptr inbounds ([28 x i8], [28 x i8]* <@ID>, i32 <INT>, i32 <INT>), i8* <%ID>)":3152,"##tvalue { double, double }":3153,"##, label { <%ID>*, <%ID>*, i32 }8":3154,"<%ID> = bitcast [102 x [103 x [103 x [5 x double]]]]* <%ID> to i8*":3155,"define void <@ID>({ i32, i8*, i8*, i8*, i8*, i8*, i8*, i8*, i8*, i8*, i8*, i8*, { opaque*, opaque*, i32 }*, opaque*, i32, i32, i64, i16, i8, [1 x i8], i8*, i64, i8*, i8*, i8*, i8*, i64, i32, [20 x i8] }* <%ID>, i8 signext <%ID>)":3156,"<%ID> = call i32 (i8*, ...) <@ID>(i8* getelementptr inbounds ([46 x i8], [46 x i8]* <@ID>, i32 <INT>, i32 <INT>), i32 <%ID>)":3157,"<%ID> = call i32 (i8*, ...) <@ID>(i8* getelementptr inbounds ([38 x i8], [38 x i8]* <@ID>, i32 <INT>, i32 <INT>), i64 <%ID>)":3158,"<%ID> = call i32 (i8*, ...) <@ID>(i8* getelementptr inbounds ([40 x i8], [40 x i8]* <@ID>, i32 <INT>, i32 <INT>))":3159,"<%ID> = call i32 (i8*, ...) <@ID>(i8* getelementptr inbounds ([44 x i8], [44 x i8]* <@ID>, i32 <INT>, i32 <INT>), i32 <%ID>, i32 <%ID>, i32 <%ID>)":3160,"<%ID> = call i32 (i8*, ...) <@ID>(i8* getelementptr inbounds ([21 x i8], [21 x i8]* <@ID>, i32 <INT>, i32 <INT>))":3161,"<%ID> = call i32 (i8*, ...) <@ID>(i8* getelementptr inbounds ([41 x i8], [41 x i8]* <@ID>, i32 <INT>, i32 <INT>))":3162,"<%ID> = call i32 (i8*, ...) <@ID>(i8* getelementptr inbounds ([27 x i8], [27 x i8]* <@ID>, i32 <INT>, i32 <INT>), i8* <%ID>)":3163,"<%ID> = call i32 (i8*, ...) <@ID>(i8* getelementptr inbounds ([20 x i8], [20 x i8]* <@ID>, i32 <INT>, i32 <INT>))":3164,"<%ID> = bitcast double* <%ID> to [5 x [5 x double]]*":3165,"## <@ID>, <%ID> ]":3166,"<%ID> = lshr i64":3167,"<%ID> = phi i1 [":3168,"##{ double, double }* <%ID>)":3169,"<%ID> = alloca i8**, align 8":3170,"## x double], [11":3171,"##[5 x [5 x [5 x double]]]], [2 x ":3172,"<%ID> = call i32 (i8*, ...) <@ID>(i8* nonnull dereferenceable(1) getelementptr inbounds ([4":3173,"## i32 ":3174,"<%ID> = load i32, i32* { <%ID>*, <%ID>*, i32 }9, align 4":3175,"<%ID> = getelementptr inbounds [5 x i32], [5 x i32]* <@ID>, i64 <INT>, i64 <%ID>":3176,"<%ID> = zext i1":3177,"##, <FLOAT>":3178,"<%ID> = call i32 <@ID>({ i64, i64 }* <%ID>, ":3179,"<%ID> = call i32 <@ID>({ i64, i64 }* <%ID>, { i32, i32 }* null)":3180,"##], [10 x [2 x ":3181,"##2 x double]], [10 x [2 x ":3182,"<%ID> = call i32 (i8*, ...) <@ID>(i8* getelementptr inbounds ([34 x i8], [34 x i8]* <@ID>, i32 <INT>, i32 <INT>), i8* <%ID>)":3183,"##56 x { double, double }":3184,"## <%ID>, [4 x i32]* <%ID>)":3185,"<%ID> = zext i1 <%ID> to i32":3186,"<%ID> = getelementptr inbounds [10 x [2 x double]], [10 x [2 x ":3187,"br label { <%ID>*, <%ID>*, i32 }9":3188,"##, i32 <%ID>, i32":3189,"##, i8* getelementptr inbounds ([11 x i8], [11":3190,"store i64 { <%ID>*, <%ID>*, i32 }":3191,"<%ID> = getelementptr inbounds [14 x double], [1":3192,"call void <@ID>(i32 <%ID>, i32 <%ID>":3193,"store i8* getelementptr inbounds ([5 x i8], [5 x i8]* <@ID>, i32 <INT>, i32 <INT>), i8** <%ID>, align 8":3194,"<%ID> = getelementptr inbounds { { opaque*, opaque*, i32, [1 x i64] }, { opaque*, opaque*, i32, [1 x i64] }*, i32, i32, i32, i32, i32, i32, i32, i32, i32, i32, i32*, { opaque*, opaque*, i32, [1 x i64] }**, i8* }, { { opaque*, opaque*, i32, [1 x i64] }, { opaque*, opaque*, i32, [1 x i64] }*, i32, i32, i32, i32, i32, i32, i32, i32, i32, i32, i32*, { opaque*, opaque*, i32, [1 x i64] }**, i8* }* <%ID>, i64 <INT>, i32 <INT>":3195,"store double <FLOAT>, double* getelementptr inbounds ([2 x [5 x [3 x double]]], [2 x [5 x [3 x double]]]* <@ID>, i64 <INT>, i64 <INT>, i64 <INT>, i64 <INT>), align 8":3196,"## <%ID>, i8* getelementptr inbounds ([25 x i8], [25":3197,"store double <FLOAT>, double* { <%ID>*, <%ID>*, i32 }":3198,"##1 x i8]* <@ID>, i32 <INT>, i32 <INT>), double <%ID>)":3199,"## <%ID>, i32* <%ID>)":3200,"<%ID> = getelementptr inbounds [2 x double], [2 x double]* <%ID>, i64 <INT>, i64 <%ID>":3201,"## x i8]* <@ID>, i32 <INT>, i32 <INT>), i8* getelementptr inbounds ([9 x i8], [9":3202,"<%ID> = call i32 (i8*, ...) <@ID>(i8* getelementptr inbounds ([31 x i8], [3":3203,"<%ID> = getelementptr inbounds [1024 x i8], ":3204,"<%ID> = getelementptr inbounds [1024 x i8], [1024":3205,"<%ID> = getelementptr inbounds i16, i16":3206,"<%ID> = getelementptr inbounds [11 x double], [11":3207,"## unnamed_addr":3208,"##fastcc":3209,"define internal fastcc":3210,"<@ID> = common global [8800 x [5 x [5 x [5 x double]]]] zeroinitializer, align 16":3211,"##[102 x [103 x [103 x double]]":3212,"<@ID> = private unnamed_addr constant [20 x i8] c\"":3213,"##* <%ID>, i64* <%ID>)":3214,"## x i8]* <@ID>, i32 <INT>, i32 <INT>), i32 <%ID>, i8* getelementptr inbounds ([6 x i8], [6 x i8]* <@ID>, i32 <INT>, i32 <INT>), i8* getelementptr inbounds ([12 x i8], [12 x i8]* <@ID>, i32 <INT>, i32 <INT>), i8* getelementptr inbounds ([15 x i8], [15 x i8]* <@ID>, i32 <INT>, i32 <INT>), i8* getelementptr inbounds ([15 x i8], [15 x i8]* <@ID>, i32 <INT>, i32 <INT>), i8* getelementptr inbounds ([7 x i8], [7 x i8]* <@ID>, i32 <INT>, i32 <INT>), i8* getelementptr inbounds ([7 x i8], [7 x i8]* <@ID>, i32 <INT>, i32 <INT>), i8* getelementptr inbounds ([36 x i8], [36":3215,"<%ID> = load i32, i32* { <%ID>*, <%ID>*, i32 }2, align 4":3216,"<%ID> = load i16, i16":3217,"<%ID> = getelementptr inbounds [3 x [5 x [5 x double]]], [3 x [5 x [5 x double]]]":3218,"##* [ <%ID>, <%ID> ], [ <@ID>, <%ID> ]":3219,"##* <%ID>, double <%ID>, double <%ID>)":3220,"<%ID> = getelementptr inbounds [2 x [5 x [5 x [5 x double]]]], [2 x ":3221,"##], [1 x i64":3222,"<%ID> = getelementptr inbounds [1 x i64":3223,"<%ID> = getelementptr inbounds [1 x i64], [1 x i64":3224,"##9 x i8]* <@ID>, i32 <INT>, i32 <INT>))":3225,"##1 x i8], [11 x i8]* <@ID>, i32 <INT>, i32 <INT>), i8* getelementptr inbounds ([2 x i8], [2 x i8]* <@ID>, i32 <INT>, i32 <INT>))":3226,"<%ID> = load i16, i16* <%ID>, align 2":3227,"##, double* { <%ID>*, <%ID>*, i32 }":3228,"##[5 x [5 x double]]* getelementptr inbounds ([102 x [103 x [5 x [5 x double]]]], [102 x [103 x [5 x [5 x double]]]]* <@ID>, i32 <INT>, i32 <INT>, i32 <INT>)":3229,"<%ID> = getelementptr inbounds [28 x i32], [28 x i32]* <%ID>, i64 <INT>, i64 <%ID>":3230,"<%ID> = getelementptr inbounds [103 x [5 x double]], [103 x [5 x double]]* getelementptr inbounds ([103 x [103 x [5 x double]]], [103 x [103 x [5 x double]]]":3231,"<%ID> = getelementptr inbounds [103 x [5 x double]], [103 x [5 x double]]* getelementptr inbounds ([103 x [103 x [5 x double]]], [103 x [103 x [5 x double]]]* <@ID>, i64 <INT>, i64 <INT>), i64 <INT>, i64 <%ID>":3232,"## x i8]* <@ID>, i32 <INT>, i32 <INT>), i32 <INT>)":3233,"<%ID> = load double, double* <%ID>, align 1":3234,"##32 x i8], [":3235,"##32 x i8], [32":3236,"br label { i32, i32, i32, i64 }":3237,"##1, align 8":3238,"## double <FLOAT>, <FLOAT>":3239,"<@ID> = common global [334600 x double] zeroinitializer, align 16":3240,"##* <%ID>, i32 <INT>, i32 <INT>)":3241,"<%ID> = fcmp ole double <%ID>, <FLOAT>":3242,"<%ID> = load double, double* getelementptr inbounds ([5 x double], [5 x double]* <@ID>, i64 <INT>, i64 <INT>), align 8":3243,"<%ID> = call i32 (i8*, ...) <@ID>(i8* getelementptr inbounds ([36 x i8], [36 x i8]* <@ID>, i32 <INT>, i32 <INT>), i32 <%ID>, double <%ID>, double <%ID>, double <%ID>)":3244,"##], [8800 x [6 x [4 x i32]]":3245,"##8800 x [6 x [4 x i32]]], [8800 x [6 x [4 x i32]]":3246,"<%ID> = bitcast double* <%ID> to [102 x [103 x [5 x [5 x double]]]]":3247,"<%ID> = bitcast double* <%ID> to [102 x [103 x [5 x [5 x double]]]]*":3248,"br label { i32, i64, i32, i32 }":3249,"<%ID> = getelementptr inbounds i16, i16* <%ID>, i64 <%ID>":3250,"##i64 <INT>":3251,"##[2 x double]** <%ID>, align 8":3252,"##, i32* { [512 x i8], i32, i32, i32, i32, i32, i32, i32, i32, i32, i32, i32, i32, i32, i32, i64, i64, i32, i32, i32, i8*, i32*, { { <%ID>*, <%ID>*, i32, [1 x i64] }, { <%ID>*, <%ID>*, i32, [1 x i64] }*, i32, i32, i32, i32, i32, i32, i32, i32, i32, i32, i32*, { <%ID>*, <%ID>*, i32, [1 x i64] }**, i8* }*, i32, { i32, i64, i32, i32 }*, [512 x i8], [512 x i8], [512 x i8], [512 x i8], [512 x i8], [512 x i8], [512 x i8], <%ID>*, <%ID>*, <%ID>*, <%ID>*, <%ID>*, <%ID>*, <%ID>*, [4 x i64], [20 x i32], [4 x i64], [4 x i64], { i32, i32, i32, i64 }*, { i32, i32, i32 }*, i32, i32, i32, i32, i32, i32, i64, i32, i32, i32, i32 }":3253,"<%ID> = extractvalue { double, double }":3254,"<%ID> = extractvalue { double, double } <%ID>, ":3255,"##8, align 8":3256,"br i1 { <%ID>*, <%ID>*, i32 }1":3257,"##* <%ID>, double <%ID>, double* <%ID>)":3258,"## <%ID>, i32 <INT>, i32 <INT>":3259,"<@ID> = common global [5 x double] zeroinitializer, align 16":3260,"## x i32], [75001":3261,"##75001 x i32], [75001":3262,"br label { <%ID>*, <%ID>*, i32 }4":3263,"<%ID> = icmp eq { i32, i8*, i8*, i8*, i8*, i8*, i8*, i8*, i8*, i8*, i8*, i8*, { opaque*, opaque*, i32 }*, opaque*, i32, i32, i64, i16, i8, [1 x i8], i8*, i64, i8*, i8*, i8*, i8*, i64, i32, [20 x i8] }* <%ID>, null":3264,"##33":3265,"##{ i32, i64, i32, i32 }, align 4":3266,"## <@ID>(i64 <%ID>, ":3267,"## x i8]* <@ID>, i32 <INT>, i32 <INT>), i8* getelementptr inbounds ([7 x i8], [7 x i8]* <@ID>, i32 <INT>, i32 <INT>), i8* getelementptr inbounds ([7 x i8], [7 x i8]* <@ID>, i32 <INT>, i32 <INT>))":3268,"<@ID> = external global [6 x [6 x i32]], align 16":3269,"tail call void <@ID>(i8":3270,"## null, ":3271,"<%ID> = getelementptr inbounds [6 x [8 x i32]], [6 x [8":3272,"<%ID> = getelementptr inbounds [6 x [8 x i32]], [6 x [8 x i32]]* <@ID>, i64 <INT>, i64 <%ID>":3273,"store i32 { <%ID>*, <%ID>*, i32, [1 x i64] }":3274,"##* <%ID>, [2 x i32]":3275,"call fastcc void <@ID>(i8":3276,"br label { <%ID>*, <%ID>*, i32 }5":3277,"call void <@ID>(double* <%ID>, double":3278,"##[13 x double]":3279,"##8 x i8] c\"":3280,"##1 x i32] zeroinitializer, align 16":3281,"## [i64 <INT>":3282,"<@ID> = private unnamed_addr constant [28 x i8] c\"":3283,"define i32 <@ID>(i8":3284,"## x i64] [i64 <INT>":3285,"##[13 x double]], align 16":3286,"store { opaque*, opaque*, i32, [1 x i64] }* null, ":3287,"store { opaque*, opaque*, i32, [1 x i64] }* null, { opaque*, opaque*, i32, [1 x i64] }** <%ID>, align 8":3288,"## [102 x double]":3289,"br i1 { i32, i32, i32, i32, i32, i32, i32, i32, i32, i64, i8* }":3290,"call fastcc void <@ID>(i32":3291,"<%ID> = getelementptr inbounds [5 x double], [5 x double]* getelementptr inbounds ([5 x [5 x double]], [5 x [5 x double]]":3292,"<%ID> = getelementptr inbounds [5 x double], [5 x double]* getelementptr inbounds ([5 x [5 x double]], [5 x [5 x double]]* <@ID>, i64 <INT>, i64 <INT>), i64 <INT>, i64 <%ID>":3293,"br label { <%ID>*, <%ID>*, i32 }8":3294,"## x i32], [1024":3295,"<%ID> = getelementptr inbounds [8800 x [12 x i32]], [8800 x [12 x i32]]* <@ID>, i64 <INT>, i64 <%ID>, i64 <INT>":3296,"<@ID> = external global [8 x [3 x i32]], align 16":3297,"<%ID> = call i32 <@ID>({ i32, i8*, i8*, i8*, i8*, i8*, i8*, i8*, i8*, i8*, i8*, i8*, { <%ID>*, <%ID>*, i32 }*, <%ID>*, i32, i32, i64, i16, i8, [1 x i8], i8*, i64, i8*, i8*, i8*, i8*, i64, i32, [20 x i8] }* <%ID>)":3298,"<%ID> = phi i8* [":3299,"store { i64*, i64*, i64 }* <%ID>, ":3300,"<%ID> = load i1, i1* <@ID>":3301,"<@ID> = common global [7 x [5 x [5 x [5 x double]]]] zeroinitializer, align 16":3302,"<@ID> = common global [5 x [5 x double]] zeroinitializer, align 16":3303,"<%ID> = call i32 (i8*, ...) <@ID>(i8* getelementptr inbounds ([22 x i8], [22 x i8]* <@ID>, i32 <INT>, i32 <INT>))":3304,"<%ID> = call i32* <@ID>()":3305,"<%ID> = load i32, i32* { <%ID>*, <%ID>*, i32 }4, align 4":3306,"<%ID> = phi [5 x [5 x double]]* [ <%ID>, <%ID> ], [ <%ID>, <%ID> ]":3307,"br label { <%ID>*, <%ID>*, i32 }7":3308,"<%ID> = fcmp u":3309,"<%ID> = call i8* <@ID>(i8* <%ID>, i8* <%ID>)":3310,"##, i8* getelementptr inbounds ([9 x i8], [9":3311,"##, i32* { { <%ID>*, <%ID>*, i32, [1 x i64] }, { <%ID>*, <%ID>*, i32, [1 x i64] }*, i32, i32, i32, i32, i32, i32, i32, i32, i32, i32, i32*, { <%ID>*, <%ID>*, i32, [1 x i64] }**, i8* }":3312,"<%ID> = call i32 (i8*, ...) <@ID>(i8* getelementptr inbounds ([26 x i8], [26":3313,"br label { i32, i32, i32, i32, i32, i32, i32, i32, i32, i64, i8* }":3314,"##03":3315,"call void <@ID>(i8* align 16":3316,"<%ID> = zext i16":3317,"##9 x i8], [5":3318,"## { <%ID>*, <%ID>*, i32 }9":3319,"<%ID> = zext i16 <%ID> to i32":3320,"##8800 x [6 x [2 x [2 x [5 x [5 x i32]]]]]], [8800 x [6 x [2 x [2 x [5 x [5 x i32]]]]]]":3321,"<%ID> = getelementptr inbounds [8800 x [6 x [2 x [2 x [5 x [5 x i32]]]]]], [8800 x [6 x [2 x [2 x [5 x [5 x i32]]]]]]* <@ID>, i64 <INT>, i64 <%ID>, i64 <%ID>, i64 <INT>, i64 <INT>, i64 <INT>, i64 <INT>":3322,"## x i32]* <%ID>, i64 <INT>":3323,"<@ID> = external global [102 x double], align 16":3324,"##, i32* { i32, i32, i32, i64 }":3325,"##, i8* <%ID>, double <%ID>, double <%ID>)":3326,"store i32 <INT>, i32* getelementptr inbounds ([4 x i32], [4":3327,"store i32 <INT>, i32* getelementptr inbounds ([4 x [2 x i32]], [4 x [2 x i32]]* <@ID>, i64 <INT>, i64 <INT>, i64 <INT>), align 4":3328,"##22":3329,"<%ID> = getelementptr inbounds [2 x i32], [2 x i32]* <%ID>, i32 <INT>, i32 <INT>":3330,"##3 x i8]* <@ID>, i32 <INT>, i32 <INT>))":3331,"<%ID> = mul i32 <%ID>, <INT>":3332,"##{ i32, i8*, i8*, i8*, i8*, i8*, i8*, i8*, i8*, i8*, i8*, i8*, { <%ID>*, <%ID>*, i32 }*, <%ID>*, i32, i32, i64, i16, i8, [1 x i8], i8*, i64, i8*, i8*, i8*, i8*, i64, i32, [20 x i8] }** { <%ID>*, <%ID>*, i32 }":3333,"## x i8]* <@ID>, i32 <INT>, i32 <INT>), i32 <%ID>, i8* getelementptr inbounds ([6 x i8], [6 x i8]* <@ID>, i32 <INT>, i32 <INT>), i8* getelementptr inbounds ([12 x i8], [12 x i8]* <@ID>, i32 <INT>, i32 <INT>), i8* getelementptr inbounds ([15 x i8], [15 x i8]* <@ID>, i32 <INT>, i32 <INT>), i8* getelementptr inbounds ([15 x i8], [15 x i8]* <@ID>, i32 <INT>, i32 <INT>), i8* getelementptr inbounds ([7 x i8], [7 x i8]* <@ID>, i32 <INT>, i32 <INT>), i8* getelementptr inbounds ([7 x i8], [7 x i8]* <@ID>, i32 <INT>, i32 <INT>), i8* getelementptr inbounds ([36 x i8], [36 x i8]* <@ID>, i32 <INT>, i32 <INT>), i8* getelementptr inbounds ([7 x i8],
[...]
