{"[SEP]":0,"[CLS]":1,"!":2,"\"":3,"#":4,"$":5,"%":6,"&":7,"'":8,"(":9,")":10,"*":11,"+":12,",":13,"-":14,".":15,"/":16,"0":17,"1":18,"2":19,"3":20,"4":21,"5":22,"6":23,"7":24,"8":25,"9":26,":":27,";":28,"<":29,"=":30,">":31,"?":32,"@":33,"A":34,"B":35,"C":36,"D":37,"E":38,"F":39,"G":40,"H":41,"I":42,"J":43,"K":44,"L":45,"M":46,"N":47,"O":48,"P":49,"Q":50,"R":51,"S":52,"T":53,"U":54,"V":55,"W":56,"X":57,"Y":58,"Z":59,"[":60,"\\":61,"]":62,"^":63,"_":64,"`":65,"a":66,"b":67,"c":68,"d":69,"e":70,"f":71,"g":72,"h":73,"i":74,"j":75,"k":76,"l":77,"m":78,"n":79,"o":80,"p":81,"q":82,"r":83,"s":84,"t":85,"u":86,"v":87,"w":88,"x":89,"y":90,"z":91,"{":92,"|":93,"}":94,"~":95,"¡":96,"¢":97,"£":98,"¤":99,"¥":100,"¦":101,"§":102,"¨":103,"©":104,"ª":105,"«":106,"¬":107,"®":108,"¯":109,"°":110,"±":111,"²":112,"³":113,"´":114,"µ":115,"¶":116,"·":117,"¸":118,"¹":119,"º":120,"»":121,"¼":122,"½":123,"¾":124,"¿":125,"À":126,"Á":127,"Â":128,"Ã":129,"Ä":130,"Å":131,"Æ":132,"Ç":133,"È":134,"É":135,"Ê":136,"Ë":137,"Ì":138,"Í":139,"Î":140,"Ï":141,"Ð":142,"Ñ":143,"Ò":144,"Ó":145,"Ô":146,"Õ":147,"Ö":148,"×":149,"Ø":150,"Ù":151,"Ú":152,"Û":153,"Ü":154,"Ý":155,"Þ":156,"ß":157,"à":158,"á":159,"â":160,"ã":161,"ä":162,"å":163,"æ":164,"ç":165,"è":166,"é":167,"ê":168,"ë":169,"ì":170,"í":171,"î":172,"ï":173,"ð":174,"ñ":175,"ò":176,"ó":177,"ô":178,"õ":179,"ö":180,"÷":181,"ø":182,"ù":183,"ú":184,"û":185,"ü":186,"ý":187,"þ":188,"ÿ":189,"Ā":190,"ā":191,"Ă":192,"ă":193,"Ą":194,"ą":195,"Ć":196,"ć":197,"Ĉ":198,"ĉ":199,"Ċ":200,"ċ":201,"Č":202,"č":203,"Ď":204,"ď":205,"Đ":206,"đ":207,"Ē":208,"ē":209,"Ĕ":210,"ĕ":211,"Ė":212,"ė":213,"Ę":214,"ę":215,"Ě":216,"ě":217,"Ĝ":218,"ĝ":219,"Ğ":220,"ğ":221,"Ġ":222,"ġ":223,"Ģ":224,"ģ":225,"Ĥ":226,"ĥ":227,"Ħ":228,"ħ":229,"Ĩ":230,"ĩ":231,"Ī":232,"ī":233,"Ĭ":234,"ĭ":235,"Į":236,"į":237,"İ":238,"ı":239,"Ĳ":240,"ĳ":241,"Ĵ":242,"ĵ":243,"Ķ":244,"ķ":245,"ĸ":246,"Ĺ":247,"ĺ":248,"Ļ":249,"ļ":250,"Ľ":251,"ľ":252,"Ŀ":253,"ŀ":254,"Ł":255,"ł":256,"Ń":257,"ĠĠ":258,"ĠĠĠĠ":259,"Ġ%":260,"Ġi":261,"ĠĠĠĠĠĠĠĠ":262,"ĊĠ":263,"Ġ=":264,"al":265,"Ġ!":266,"32":267,"ĠĠĠĠĠĠĠĠĠĠĠĠĠĠĠĠ":268,"Ġal":269,"st":270,"gn":271,"ign":272,"Ġalign":273,"Ġl":274,"64":275,"ba":276,"tba":277,"tbaa":278,"re":279,"Ġ8":280,"ct":281,"ad":282,"el":283,"ru":284,"ruct":285,"*,":286,"ds":287,"oad":288,"Ġload":289,"**":290,"Ġb":291,"ab":292,"me":293,"ou":294,"et":295,"struct":296,"Ġlab":297,"Ġlabel":298,"Ġ@":299,"Ġ4":300,"Ġp":301,"Ġc":302,"00":303,"ca":304,"Ġt":305,"10":306,"rt":307,"nt":308,"Ġto":309,"Ġ0":310,"._":311,"all":312,"Ġ;":313,"reds":314,"Ġpreds":315,"ĠĠĠĠĠĠĠĠĠĠĠĠĠĠĠĠĠĠĠĠĠĠĠĠĠĠĠĠĠĠĠĠ":316,"12":317,"13":318,"Ġbr":319,"Ġcall":320,"Ġ[":321,"Ġx":322,"ĠĠĠĠĠĠĠĠĠĠĠĠĠĠĠĠĠĠĠĠĠĠĠĠĠĠĠĠĠĠĠĠĠĠĠĠĠĠĠĠ":323,"ĠĠĠĠĠĠĠĠĠĠĠĠĠĠĠĠĠĠĠĠĠĠĠĠĠĠĠĠĠĠĠĠĠĠĠĠĠĠĠĠĠĠĠĠ":324,"oi":325,"le":326,"Ġ#":327,"se":328,"tr":329,"IO":330,"oun":331,"ore":332,"Ġst":333,"Ġstore":334,"FI":335,"LE":336,"FILE":337,"11":338,"lo":339,"Ġv":340,"it":341,"oid":342,"Ġvoid":343,"get":344,"ex":345,"ll":346,"Ġ\"":347,"at":348,"\"=":349,"\"=\"":350,"ele":351,"boun":352,"nboun":353,"ptr":354,"Ġget":355,"Ġinboun":356,"ment":357,"element":358,"Ġgetelement":359,"Ġinbounds":360,"Ġgetelementptr":361,"14":362,"ĠĠĠĠĠĠĠĠĠĠĠĠĠĠĠĠĠĠĠĠĠĠĠĠĠĠĠĠĠĠĠĠĠĠĠĠĠĠĠĠĠĠĠĠĠĠ":363,"li":364,"fet":365,"ime":366,"vm":367,"llvm":368,"lifet":369,"lifetime":370,"Ġ1":371,"Ġbit":372,"cast":373,"Ġbitcast":374,"ble":375,"dou":376,"double":377,"15":378,"17":379,"Ġallo":380,"Ġalloca":381,"nd":382,"sta":383,"16":384,"fal":385,"false":386,"St":387,"DV":388,"ert":389,"my":390,"exSt":391,"DVert":392,"exStruct":393,"DVertexStruct":394,"Ġn":395,"],":396,"18":397,"Ġdouble":398,"Ġ(":399,"19":400,"mp":401,"]*":402,"cmp":403,"on":404,"de":405,"Ġu":406,"20":407,"fp":408,"Ġicmp":409,"30":410,"0000":411,"str":412,"ĠĠĠĠĠĠĠĠĠĠĠĠĠĠĠĠĠĠĠĠĠĠĠĠĠĠĠĠĠĠĠĠĠĠĠĠĠĠĠĠĠĠĠĠĠ":413,"end":414,"start":415,"mat":416,"math":417,"..":418,"wi":419,"add":420,"Ġs":421,"in":422,"ri":423,"27":424,"24":425,",+":426,"60000":427,"23":428,"ar":429,"er":430,"*)":431,"no":432,"\",":433,"ed":434,"22":435,"ounwi":436,"Ġnounwi":437,"Ġnounwind":438,"ame":439,"Ġ%.":440,"ge":441,"un":442,"{!":443,"Ġ!{!":444,"ext":445,"21":446,"Ġ{":447,"so":448,"zext":449,"Ġzext":450,"sw":451,"able":452,"(%":453,"Ġ@.":454,"Ġ([":455,"Ġun":456,"26":457,"33":458,"loc":459,"name":460,"Ġds":461,"local":462,"Ġdso":463,"xt":464,"Ġse":465,"Ġsext":466,"25":467,"29":468,"or":469,"di":470,"te":471,".)":472,"@.":473,"are":474,"vat":475,"Ġ..":476,"Ġpri":477,"Ġcon":478,"stant":479,"dec":480,"addr":481,"Ġunname":482,"vate":483,"Ġ...)":484,"Ġprivate":485,"Ġconstant":486,"Ġunnamed":487,"edge":488,"oint":489,"Fun":490,"At":491,"ion":492,"ĠFun":493,"ĠAt":494,"ction":495,"trs":496,"ĠFunction":497,"ĠAttrs":498,"87":499,"bu":500,"43":501,"41":502,"99":503,"28":504,"ap":505,"37":506,"tar":507,"target":508,"lt":509,"lare":510,"pe":511,"declare":512,"*]*":513,"48":514,"cr":515,"crit":516,"36":517,"39":518,"ret":519,"Ġadd":520,"fs":521,"Ġ}":522,"86":523,"38":524,"35":525,"34":526,"40":527,"31":528,"93":529,"Ġ],":530,"table":531,"Ġnsw":532,"ub":533,"fe":534,"sse":535,"),":536,"*],":537,"eq":538,"Ġ2":539,"Ġ(%":540,"Ġsub":541,"44":542,"42":543,"106":544,"45":545,"50":546,"57":547,"wtable":548,"Ġuwtable":549,"fin":550,"ly":551,"an":552,"ibu":553,"tribu":554,"attribu":555,"div":556,"tes":557,"attributes":558,"Ġf":559,"Ġo":560,"Ġeq":561,"ntf":562,"rintf":563,"Ġ!{!\"":564,"ck":565,"Ġ%._":566,"sa":567,"swap":568,"128":569,"102":570,"hi":571,"Ġ]":572,"Ġphi":573,"49":574,"Ġret":575,"defin":576,"define":577,"46":578,"ctor":579,"mm":580,"pu":581,"qrt":582,"sqrt":583,"ure":584,"))":585,"dat":586,"rn":587,"rr":588,"urn":589,"Ġult":590,"sort":591,"83":592,"ull":593,"52":594,"trt":595,"Ġptrt":596,"Ġptrtoint":597,"47":598,"51":599,"78":600,"*)*":601,"112":602,"96":603,"77":604,"114":605,"56":606,"144":607,"*)*,":608,"*)**":609,"80":610,"95":611,"61":612,"84":613,"100":614,"105":615,"ote":616,"ing":617,"ointer":618,"__":619,"ai":620,"fo":621,"iso":622,"nf":623,"ype":624,"Ġ24":625,"mem":626,"Ġ@__":627,"canf":628,"Ġtype":629,"Ġ16":630,"fprintf":631,"arg":632,"pen":633,"fscanf":634,"ail":635,"isoc":636,"co":637,"90":638,"123":639,"139":640,"exit":641,"58":642,"70":643,"Ġfalse":644,"110":645,"55":646,"60":647,"101":648,"118":649,"53":650,"59":651,"89":652,"119":653,"71":654,"Ġne":655,"136":656,"111":657,"62":658,"73":659,"75":660,"91":661,"79":662,"72":663,"76":664,"85":665,"68":666,"82":667,"94":668,"98":669,"63":670,"133":671,"54":672,"67":673,"65":674,"69":675,"88":676,"103":677,"81":678,"107":679,"Ġ-":680,"109":681,"66":682,"97":683,"ci":684,"cx":685,"call":686,"cor":687,"cpu":688,"ff":689,"fr":690,"ft":691,"fx":692,"flo":693,"iz":694,"ide":695,"mad":696,"non":697,"nan":698,"os":699,"pr":700,"pre":701,"ping":702,"pointer":703,"roun":704,"sr":705,"ss":706,"sign":707,"sable":708,"siz":709,"tail":710,"use":711,"zer":712,"rect":713,"less":714,"trap":715,"ature":716,"\"=\"+":717,"stack":718,"ded":719,"fpmad":720,"infs":721,"unsa":722,"soft":723,"disable":724,"buff":725,"feature":726,"divide":727,"mmx":728,"otector":729,"cise":730,"calls":731,"correct":732,"frame":733,"fxsr":734,"float":735,"none":736,"nans":737,"protector":738,"precise":739,"rounded":740,"signed":741,"size":742,"zeros":743,"trapping":744,"unsafe":745,"buffer":746,"features":747,"correctly":748,"clo":749,"fclo":750,"gt":751,"ow":752,"pow":753,"stde":754,"Ġslt":755,"data":756,"fopen":757,"Ġ240":758,"fclose":759,"stderr":760,"ĠĠĠĠĠĠĠĠĠĠĠĠĠĠĠĠĠĠĠĠĠĠĠĠĠĠĠĠĠĠĠĠĠĠĠĠ":761,"117":762,"113":763,"74":764,"116":765,"120":766,"161":767,"198":768,"115":769,"Ġnull":770,"108":771,"129":772,"183":773,"124":774,"137":775,"132":776,"121":777,"130":778,"122":779,"**,":780,"***":781,"125":782,"131":783,"104":784,"126":785,"138":786,"92":787,"134":788,"140":789,"141":790,"142":791,"143":792,"197":793,"out":794,"nal":795,"ernal":796,"168":797,"only":798,"\"%":799,"\"\\":800,"aq":801,"ain":802,"ile":803,"main":804,"ort":805,"ofp":806,"paq":807,"qsort":808,"turn":809,"ue":810,"Ġ3":811,"ĠC":812,"Ġwi":813,"Ġarg":814,"oreturn":815,"itofp":816,"llret":817,"Ġnoreturn":818,"Ġule":819,"000000":820,"Ġsge":821,"Ġsitofp":822,"Ġopaq":823,"memonly":824,"Ġwillret":825,"Ġargmemonly":826,"Ġopaque":827,"Ġwillreturn":828,"127":829,"135":830,"back":831,"backedge":832,"172":833,"196":834,"203":835,"165":836,"th":837,"146":838,"167":839,"190":840,"212":841,"213":842,"null":843,"Ġnon":844,"Ġnonnull":845,"ac":846,"hable":847,"Ġint":848,"reac":849,"Ġinternal":850,"reachable":851,"185":852,"ector":853,"'t":854,"AE":855,"ce":856,"file":857,"hort":858,"ker":859,"mu":860,"mar":861,"om":862,"oca":863,"pt":864,"printf":865,"set":866,"short":867,"vt":868,"Ġ144":869,"Ġmu":870,"Ġimm":871,"reg":872,"Ġnoca":873,"mpare":874,"Ġugt":875,"wide":876,"Ġsdiv":877,"decvt":878,"Ġfcmp":879,"Ġfadd":880,"put":881,"rror":882,"compare":883,"codecvt":884,"dataset":885,"output":886,"qsortx":887,"ĠCan":888,"AError":889,"marker":890,"pture":891,"shortsort":892,"Ġ1440000":893,"Ġmul":894,"Ġimmarg":895,"Ġnocapture":896,"151":897,"Ġunreachable":898,"150":899,"157":900,"175":901,"204":902,"159":903,"181":904,"201":905,"219":906,"155":907,"179":908,"166":909,"182":910,"187":911,"189":912,"195":913,"199":914,"208":915,"170":916,"163":917,"188":918,"194":919,"164":920,"200":921,"145":922,"147":923,"148":924,"149":925,"152":926,"153":927,"154":928,"156":929,"158":930,"171":931,"173":932,"174":933,"176":934,"177":935,"178":936,"160":937,"162":938,"169":939,"180":940,"184":941,"186":942,"191":943,"192":944,"193":945,"202":946,"205":947,"206":948,"207":949,"210":950,"211":951,"214":952,"215":953,"217":954,"216":955,"218":956,"220":957,"209":958,"221":959,"222":960,"cs":961,"lcs":962,"lcssa":963,"read":964,"thread":965,"01":966,"ni":967,"ĠĠĠĠĠĠĠĠĠĠĠĠĠĠĠĠĠĠĠĠĠĠĠĠĠĠĠĠĠĠĠĠĠĠĠĠĠ":968,"dth":969,"gal":970,"ju":971,"min":972,"vector":973,"legal":974,"width":975,"tables":976,"jump":977,"!\\":978,"\"_":979,"\"}":980,"'-":981,"++":982,"-\"":983,".\\":984,">\\":985,"AA":986,"AS":987,"BAA":988,"ID":989,"Mo":990,"Si":991,"TBAA":992,"Usa":993,"ay":994,"bal":995,"du":996,"glo":997,"gin":998,"he":999,"har":1000,"int":1001,"ind":1002,"kno":1003,"ld":1004,"lar":1005,"nc":1006,"ng":1007,"nu":1008,"nce":1009,"ple":1010,"pote":1011,"rce":1012,"rom":1013,"sou":1014,"wn":1015,"wt":1016,"Ġ<":1017,"Ġba":1018,"Ġon":1019,"Ġ60000":1020,"Ġext":1021,"Ġdi":1022,"Ġdat":1023,"Ġqsort":1024,"Ġdataset":1025,"Ġoutput":1026,"Ġ'-":1027,"ĠMo":1028,"ĠTBAA":1029,"Ġglo":1030,"alay":1031,"gnu":1032,"runc":1033,"Ġpointer":1034,"Ġchar":1035,"Ġtri":1036,"Ġthe":1037,"Ġtrunc":1038,"leID":1039,"sed":1040,"long":1041,"Ġvector":1042,"Ġ\"-\"":1043,"elect":1044,"linu":1045,"Ġ100":1046,"stance":1047,"mple":1048,"Ġudiv":1049,"Ġsle":1050,"Ġsgt":1051,"Ġselect":1052,"rigin":1053,"270":1054,"271":1055,"272":1056,"unkno":1057,"finfo":1058,"any":1059,"Ġfile":1060,"Ġfind":1061,"Ġfrom":1062,"Ġoeq":1063,"Ġopen":1064,"Ġogt":1065,"Ġorigin":1066,"sorted":1067,"orting":1068,"filename":1069,"omni":1070,"ASorting":1071,"Simple":1072,"Usage":1073,"duleID":1074,"large":1075,"potent":1076,"source":1077,"Ġbased":1078,"Ġexternal":1079,"Ġdistance":1080,"Ġdatalay":1081,"Ġ'-'":1082,"ĠModuleID":1083,"Ġglobal":1084,"Ġtriple":1085,"Ġvectors":1086,"linux":1087,"unknown":1088,"omnipotent":1089,"Ġdatalayout":1090,"Ġtail":1091,"Re":1092,"pl":1093,"deRe":1094,"codeRe":1095,"codeRepl":1096,"012":1097,"ĠĠĠĠĠĠĠĠĠĠĠĠĠĠĠĠĠĠĠĠĠĠĠĠĠĠĠĠĠĠĠĠĠĠĠĠĠĠĠĠĠĠĠĠĠĠĠ":1098,"02":1099,"ĠĠĠĠĠĠĠĠĠĠĠĠĠĠĠĠĠĠĠĠĠĠĠĠĠĠĠĠĠĠĠĠĠĠĠĠĠĠ":1100,"014":1101,"load":1102,"reload":1103,"ĠĠĠĠĠĠĠĠĠĠĠĠĠĠĠĠĠĠĠĠĠĠĠĠĠĠĠĠĠĠĠĠĠĠĠĠĠĠĠ":1104,"013":1105,"Ġ%\"":1106,"Ġpoint":1107,"015":1108,"act":1109,"tract":1110,"extract":1111,"234":1112,"extracted":1113,"ph":1114,"05":1115,"233":1116,"outer":1117,"07":1118,"232":1119,"248":1120,"249":1121,"239":1122,"226":1123,"op":1124,"loop":1125,"loopexit":1126,"230":1127,"227":1128,"224":1129,"223":1130,"Ro":1131,"cRo":1132,"ew":1133,"new":1134,"ot":1135,"ĠĠĠĠĠĠĠĠĠĠĠĠĠĠĠĠĠĠĠĠĠĠĠĠĠĠĠĠĠĠĠĠĠĠĠĠĠĠĠĠĠ":1136,"Stub":1137,"240":1138,"241":1139,"242":1140,"243":1141,"244":1142,"245":1143,"246":1144,"247":1145,"231":1146,"235":1147,"236":1148,"237":1149,"238":1150,"225":1151,"228":1152,"229":1153,"250":1154,"251":1155,"252":1156,"253":1157,"254":1158,"255":1159,"256":1160,"257":1161,"258":1162,"FuncRo":1163,"exitStub":1164,"newFuncRo":1165,"newFuncRoot":1166,"08":1167,"010":1168,"Bloc":1169,"Un":1170,"Uni":1171,"be":1172,"fi":1173,"edUn":1174,"reachableBloc":1175,"Unifi":1176,"edUnreachableBloc":1177,"UnifiedUnreachableBloc":1178,"UnifiedUnreachableBlock":1179,"016":1180,"018":1181,"Ġread":1182,"ĠĠĠĠĠĠĠĠĠ":1183,"ĠĠĠĠĠĠĠĠĠĠĠĠĠĠĠĠĠĠĠĠĠĠĠĠĠ":1184,"Ġreadonly":1185}